[PAD]
[UNK]
[CLS]
[SEP]
[MASK]
、
。
１
０
：
の
／
２
て
に
は
し
．
が
た
）
で
－
（
３
を
５
と
４
６
７
あり
８
も
ｍｇ
９
■
なし
日
いる
＃
・
ない
＠＠Ｎ
Ａ
する
Ｐ
Ｏ
こと
Ｓ
時
＿
Ｌ
錠
後
から
ため
ます
ある
より
ｇ
れ
さ
です
％
な
い
経過
入院
変更
ｄＬ
継続
分
＋
か
内服
医
なく
おり
Ｃ
なっ
よう
にて
Ｒｐ
１日
Ｔ
のみ
中
可
へ
Ｕ
薬品
後発
】
【
Ｈ
ｍｌ
本日
観察
退院
ず
予定
まで
＊
開始
前
施行
必要
まし
られ
や
でき
本人
直上
投与
ん
説明
明日
認め
いく
確認
あっ
について
だ
Ｂ
状態
１回
ｋｇ
ね
良好
ｌ
れる
ｄｌ
など
Ｄ
使用
右
台
食事
なる
ｍｍ
Ｉ
ば
ご
＞
回
よ
改善
科
実施
量
＜
摂取
疼痛
ｂ
的
２０１７年
薬
み
尿
手術
Ｔ３
左
部
程度
ｄａｙ
呼吸
上記
°
？
考え
注意
ｘ
２０１６年
最終
Ｎ
内
また
修正
朝食
評価
術
検査
処方
ＣＴ
治療
様子
低下
せ
保険
区分
予定日
見
特記
希望
上
られる
き
による
＝
本
当
ので
終了
療法
朝
Ｅ
問題なし
昨日
体重
指示
今後
Ｇ
上昇
Ｄｒ
ｈ
なかっ
行っ
なり
ｃｍ
御
ＷＢＣ
可能性
ＳｐＯ
事項
ＲＰ
お願い
出現
訴え
家族
検討
ＨＲ
］
［
方針
ｍＬ
外来
歩行
傾向
現在
術後
ＢＰ
発熱
その後
たい
問題
ＡＬ
として
けど
明らか
ｓ
下
目的
」
「
夜間
やや
万
時間
相談
受診
ところ
内科
Ｘ
Ｋ
Ｃｒｅ
不安
中止
値
先生
２回
症状
対応
院
以上
そう
可能
できる
トイレ
ｍｍｏｌ
著変
たら
出
頃
疑い
ＳＴ
所見
ｍＥｑ
痛み
ｏ
日中
お
Ａｌｂ
ｐ
歴
抜去
ｒ
に対して
フォロー
夕食
ｍ
コンサルト
出血
増量
千
Ｒ
う
安定
診断
採血
担当
行う
方
ＰＣ
室
介入
もの
ＯＴ
嘔気
患者
ｋｃａｌ
いい
入
変化
数
排便
他
その
により
食
院外処方
医師
液
毎食
たり
設定
ドレーン
単位
度
ＭＲ
栄養
リスク
目
大丈夫
得
ＰＴ
Ｂｉｌ
報告
あれ
理解
に関して
記載
未
等
血圧
再度
際
ませ
食後
事
ＩＣ
減量
引き続き
ＣＰ
ａ
少し
母
内容
Ｍ
Ｎａ
食べ
体
包
ＰＳＬ
ベッド
ＡＰ
依頼
看護師
大変
結果
性
薬剤
今日
特に
持続
血糖
再開
ＢＵＮ
今
状況
思わ
連絡
酸素
その他
管理
身長
３月
６月
精査
病院
８月
気
今回
朝夕
全身
７月
創部
１０月
追加
リハビリ
介助
点滴
落ち着い
既往
４月
腹部
前回
増悪
指導
昼
９月
ＬＤ
５月
軽度
エコー
１１月
１２月
ｃ
行い
でも
加療
お世話
診
ＡＤＬ
適宜
てる
紹介
機能
指摘
調整
自宅
ｄ
なら
コントロール
眠前
離床
交換
安静
場合
ながら
肺炎
器
って
痛い
就寝
出来
用
年
ＳＰ
以降
腹痛
Ｖ
に対し
転倒
嘔吐
感じ
化学
良い
月
まだ
生活
剤
退院後
午後
カテ
挿入
ＧＰＴ
浮腫
思い
胸部
現
という
処置
転院
下肢
肝
表情
糖尿病
自分
帰
７日
効果
心
Ｆ
だっ
軽減
強く
Ｐｌｔ
看護
参照
肺
抗生剤
インスリン
ＰＯＤ
以下
；
診察
ガーゼ
２月
カロナール
発赤
褥瘡
１月
塗布
飲水
位
異常
増強
何
コール
カプセル
および
排
悪化
昼食
済み
ＯＤ
ＭＣ
外科
留置
Ｃｌ
ｅ
致し
導入
〔
〕
管
ござい
胃
これ
それ
原因
少量
ください
棟
ＰＬ
貧血
全
足
ほど
予防
循環
認める
自制
疑わ
両
でし
造影
高い
内服薬
測定
手
ｐｇ
くらい
ｎ
ＧＴＰ
維持
病棟
吸引
腹部症状
よい
側
培養
腫瘍
妻
パス
見守り
かも
ｎｇ
Ｗ
体温
切除
平素
ＣＶ
高
提出
高値
頭部
自覚
拡大
困難
運動
感染
児
ＩＵ
Ｃａ
血液
前後
この
多い
家
考える
シャワー
外
変わら
ＮＳ
いたし
出し
よく
ワーファリン
続い
次回
便
眠れ
なけれ
伴う
持参
どう
変わり
ＰＥ
個
強い
飲ん
ＣＫ
目標
る
印象
以前
判断
##左
ｍｉｎ
いただき
軽快
ＴＡ
車椅子
ＴＲ
とき
影響
透析
臨時
呼吸苦
ｔ
頭痛
一
副作用
夕
ふらつき
夜
陰性
院内
周囲
排尿
とか
熱
ＰＲ
下痢
外泊
眼
だけ
方法
ヶ月
ＴＰ
！
外出
割
ｇｑ
ナースコール
多く
##右
ＢＳ
ＲＢＣ
発言
毎
注入
もう
Ｚ
軟膏
面会
寝
しれ
いただく
ＣＦ
両側
痰
血
考慮
ＨＣ
点
に対する
よろしく
ＲＡ
病歴
ＩＮＲ
人
大
補液
ステロイド
来院
高血圧
良く
覚醒
頂き
ｅＧＦＲ
貴
再検
Ｈｃｔ
同意
水
ＭＩ
ラシックス
３０分
言わ
ＨＤ
思っ
指
わ
ほとんど
ほぼ
すぐ
感染症
話
声
為
徐々に
声かけ
バイタル
腎
痛く
高齢
再
発作
腫脹
でしょ
頭
申し上げ
以外
転
伝え
移動
あまり
しまう
訪室
第
自立
夕方
アレルギー
腹水
受け
化
ものの
症状なし
ちょっと
っ
す
過ごさ
解熱
夫
症
減少
ＤＭ
不明
増加
Ｇｌｕ
国保
カヌラ
宜しく
固定
定時
ＣＧ
モニター
装着
ヘパリン
ＨＢ
ＢＷ
ありがとう
来
圧迫
輸血
配合
アスピリン
とも
病変
嚥下
では
かけ
推移
胸部症状
みる
必要性
圧痛
ずつ
バイ
服用
##性
通り
準備
生検
もらう
後半
皮膚状態
不可
週
ＩＰ
著
気持ち
ＩＩ
状態著変
反応
渡し
ロキソニン
レントゲン
水分
ｉ
部分
皮膚
部位
臥床
飲み
注
ー
皮疹
お腹
動
保護
鎮痛
ちゃっ
循環器
促し
続く
ＵＡ
頓
口
末梢
立案
消化器
消失
貯留
ｈｒ
栄養障害
行動
独歩
心不全
消灯
ｏｆｆ
大きな
癌
機械
お伝え
ＳＲ
倦怠感
危険因子
頂く
１週間
ルート
いつも
適応
９０日
り
程
ＣＲ
穏やか
ＡＧ
全量
２８日
伴い
洗浄
ｂｐｍ
Ａｍｙ
ｆ
粥
チーム
過ごす
点眼
陽性
現時点
枚
者
止め
たく
低
口腔内
やっ
下さい
１０時
レベル
思う
ｙ
Ｎｒ
セルフ
進行
音
ＰＭ
おら
ここ
まま
炎症反応
くる
回復
ｖｉｔａｌｓｔａｂｌｅ
胸水
エネルギー
練習
Ｎｅｕｔｒｏ
法
３０日
いただい
みたい
狭窄
刺入
時半
否定
手技
自身
午前中
野
続行
しまっ
左右
２０１３年
しかし
過去
含め
血算
先
腫瘤
症候群
##Ａ
ｓＢＰ
ＭＣＶ
型
計画
ｐＨ
２１時
合併症
変動
リハ
了承
調子
カテーテル
Ｍ０
経
Ｑ
消化器症状
フリー
もらっ
回分
質問
食上げ
来週
じゃ
ＩＩＩ
ｗ
２０１２年
名
頂い
上肢
電話
頻
皮膚科
範囲
入れ
け
間
２週間
帯
吸入
チューブ
有無
拝見
負荷
起床
無し
ＳＡ
ｕ
２０１４年
笑顔
栄養管理
便秘
通院
コース
正常
主治医
十分
様
納得
大腿
凝固
同様
疼痛コントロール
拝
自己管理
##軽度
おき
２０１５年
１４日
トラブル
痺れ
言っ
掻痒感
頸部
背
ペンタジン
ラウンド
摂取量
私
絶食
一部
##Ｐ
娘
難しい
＆
普通
サイド
壁
３日
予定通り
バイタルサイン
悪い
咳嗽
ＴＴ
心電図
チェック
主訴
喀痰
聞い
プレドニン
同
穿刺
３回
入り
く
マスク
幸い
早期
だろ
忘れ
浴
週明け
つき
健常
した
理由
バランス
行く
細胞
ミルク
傾聴
自室
１時間
保た
近医
発症
眠
父
耳鼻
安全
付き添い
日齢
ＢＮＰ
拒否
横ばい
過ぎ
##Ｓ
心配
嚥下障害
妊娠
会
聞か
ＲＲ
進め
ＪＣＳ
有害事象
ら
このまま
輸液
データ
悪く
ＰＡ
促す
しか
ケア
低血糖
恐縮
書
物
２０１１年
##ｓ
制限
##Ｂ
睡眠
少ない
場所
話し
しない
疑う
再発
旨
仕事
切除術
ＶＳ
四肢
食前
解除
ＧＦ
移乗
決定
２０１０年
期待
合わせ
ゆっくり
時折
め
##Ｔ
消化
肛門
圧
喫煙
１２時
酵素
##ｐ
ほしい
許可
点眼液
眠剤
たんぱく質
出来る
##Ｃ
病理
繰り返し
部屋
約
こちら
当直
注射
ＡＢ
生
２０時
経口摂取
面
危険行動
確保
３５日
服薬
自覚症状
つけ
え
状
過ごし
入っ
流出
不眠
楽
ＬＣ
障害
ランタス
眼科
話さ
ＰＤ
ＭＴ
起き
ラキソベロン
腰
あと
排ガス
移植
組合
せる
##２
##お
出る
脈拍
ｉｎ
沿っ
照射
##ａ
血管
行え
メイン
ゼリー
##Ｌ
不良
鼻
概ね
参加
お忙しい
２時間
骨折
やすい
面談
つつ
抗菌薬
下腿
哺乳
いき
筋
抗
撮影
苦痛
イレウス
もともと
ＥＲＣ
訓練
##ｅ
積極
伝える
増え
##ｏ
向け
子宮
プラン
ＢＴ
転移
潰瘍
##大
済
とともに
１５時
マイスリー
Ｎ３
低い
予約
ＵＣ
##後
##中
無い
ストレス
感染徴候
半
ＩＶ
期間
母親
血糖測定
ライン
包化
リング
表出
ＯＦＦ
炎症
によって
くれ
循環動態
レンドルミン
酸化マグネシウム
あ
高く
残存
準夜帯
しっかり
不変
##Ｉ
クーリング
ＣＢ
動脈
基準
頚部
脳梗塞
ＶＦ
行わ
箱
一旦
##内
##高
併用
腰痛
入室
ＳＳ
情報
ＣＫＤ
##ｉｎ
背部
緊急
眠さ
師
リンパ節
前半
誤嚥
順調
コメント
##Ｄ
##Ｒ
ごろ
疾患
アルブミン
ご飯
会話
ちゃう
不要
Ｍｏ
皮膚トラブル
##両側
１６時
ＤＣ
連携
Ｊ
９時
１４時
要
骨
積極的
閉塞
一人
及び
分泌
##上
存じ
２日
提案
女性
詳細
方向
さらに
アップ
初回
ＡＲ
意識レベル
０時
記録
ＴＣ
侍史
Ｙ
ｌｏｗ
ＭＳ
やっぱり
排泄
ＨｂＡ
ｃｌｅａｒ
にくい
ｖ
整形外科
支援
Ｈｒ
葉
週末
抗体
活気
Ｆｂｇ
胸
ＴＢ
白血球
話す
生食
日勤
協力
肢
ＬＡＤ
ＨＴ
画像
##ｇ
ＡＣ
緊急入院
ファ
造
しばらく
クリニカルパス
多量
血腫
ゾシン
血栓
下剤
##小
経口
採取
飲酒
ＣＤＤＰ
力
##ｃ
##の
浸潤
ＯＫ
##ｄ
ＶＣＭ
毎日
組織
持っ
無
ＶＴ
スムーズ
貼付
##Ｍ
感
軟
得る
回数
抑制
ＭＥ
情報提供
日常生活
いっ
##Ｆ
脱水
まずは
早く
大きく
脂質異常症
念
間質性
ＣＣ
環境
つい
時期
体調
６時
差
腸蠕動音
食道
クー
聴取
所
両親
緩和ケア
メトグルコ
妥当
動作
食止め
##リ
始め
全体
ＶＡ
同じ
初診
期
横
用い
べき
相当
オキノーム
アーチスト
誘導
経管栄養
針
マグラックス
培
眠し
比較
総
時点
新た
系
検出
ｎｏｒｍａｌ
見る
神経
項目
訪室時
テープ
率
形成
失禁
最近
男性
ＩＢＷ
のに
無理
いけ
副作用症状
挙
血液検査
待ち
いう
同意書
検
ＰＯ
いずれ
室内
飲む
行き
カルテ
酸素化
ＤＩＶ
##骨
ＯＰ
湿布
ＥＦ
ｆｌ
体重減少
何卒
時に
お話
泌尿
前日
##部
すれ
転落
増大
関節
##ｒｅ
薬剤性
リリカ
##か
精神科
疼痛時
わから
ＩＶＣ
加え
ｂｏｄｙ
ＣＸＲ
クリニック
ＭＭ
放射線
##１
##３
縫合
##Ｈ
緩和
もらい
耳
疲れ
皮下脂肪
食欲
除去
ＩｇＧ
##ｂ
弾性ストッキング
神経内科
筋肉量
底
月曜日
刺激
５日
１９時
現状
ＳＣ
精神
膝
と共に
リンパ球
杖
体位変換
わかり
咳
バクタ
同日
##Ｅ
##Ｎ
ほう
自由度
移行
立位
一度
ＤＮ
エピソード
触知
##き
気分不快
定性
熱型
内視鏡
少なく
関連
トイレ歩行
ドレナージ
取得
ＡＤ
応じ
痛
回診
はっきり
ＲＤ
１８時
チャート
薬効
開始予定
動き
１０分
違和感
##Ｇ
膀胱
シャント
次第
心臓
エア
用量
##ス
ＰＴｓ
直後
誤嚥性
ＲＦＡ
口腔ケア
病状
能
ずっと
ＭＡ
ＡＴ
プリンペラン
調節
鑑別
なんか
止血
休薬
不眠時
ＣＤ
病
お話し
１１時
歩い
明
ＰＨＳ
鎮静
１７時
静脈
麻痺
２２時
心理
または
適切
乾燥
##下
##ｌ
##Ｖ
膵
##夜間
むせ
今朝
ＣＰＡ
当日
ＤＶＴ
パルス
腹部膨
セレネース
貼布
息子
ノボラピッド
ｆＬ
スケール
浸み
リンデロン
配
にかけて
##肺
##一
左下
かなり
２１日
ｄｉｖ
胸腔
救急
胸痛
体重増加
クリア
##ア
延長
##ｔ
腹腔鏡
ネキシウム
言動
こ
ＡＭ
腎臓
柵
午前
作成
Ａｆ
ｒａｔｉｏ
定
一時
訪問
脳
高血圧症
摘出
##ｉ
管理栄養士
上昇傾向
１３時
キープ
切開
マッタ
特別
術中
主
ｍｍＨｇ
気分
以後
##い
高め
趾
タケプロン
２型糖尿病
下血
翌日
意識
奥様
ＰＳ
とろみ
延期
メインテート
よろしくお願いします
月曜
紅斑
残
右側
ＰＣＯ
年齢
痙攣
ｖｉｔａｌ
マルチ
トラマール
廊下
しまい
抜管
ｎｏ
##つ
上げ
位置
気管
##不
ｒｏｏｍａｉｒ
血糖コントロール
とれ
使っ
顔面
ＢＧ
試験
いつ
##ｔｏ
もと
ダイマ
長女
ｍｇｑ
６３日
ＨＬ
不在
ＣＡ
左側
だいぶ
##ｍ
シート
拡張
＇
ＴＧ
オーダー
散歩
生じ
結節
##た
フロセミド
眩暈
困難感
段階
##が
はい
３時間
病室
単純
ＳＥ
発見
続け
臀部
ＳＧ
##Ｏ
ポート
自己
縮小
関係
セット
領域
返答
分から
生化学
肩
付け
ストマ
支え
##前
徐々
錠剤
骨盤
色
##し
外し
筋力低下
類
左上
指示書
床
##ｌｅ
同意得
座位
ＧＣ
ベース
周術期
判定
腹
せん妄
黄疸
体位
##タ
ただし
あたり
熱感
##ａｌ
保存
アルダクトン
リスパダール
右手
戻っ
長男
まずまず
労作
サポート
ｑ
肝障害
４回
くれる
弁
Ｍｇ
補助
２００９年
オキシコンチン
ＴＶ
平坦
日当
##り
給
不穏
努め
掛け
励行
見え
滲み
軟便
患
間食
計
結腸
ｋ
すると
比べ
普段
像
ＣＭＶ
地域医療
測
２３時
購入
ジャヌビア
##は
閉鎖
４日
ＡＶ
ＮＣ
比較的
線
おく
顔
##低
Ｅｏｓｉｎｏ
クレストール
徴候
ＨＣＣ
認知症
テスト
微熱
流動食
身体
実践
ｃｃ
中心
##ｕ
##ま
不調
安心
そのまま
##コ
少
危険
全然
##こ
無く
再燃
強化
抜糸
表
アセスメント
内分泌
挿管
ま
置換
子
坐
テレビ
ＦＮ
##皮膚
不整脈
減っ
除圧
なかなか
投与経路
オムツ
散
血中濃度
元気
決め
滴
なお
一般
スタッフ
早め
ＴＳＨ
喫食
漏れ
##あ
食べる
オリエンテーション
ＡＳ
受け入れ
##ト
ムコスタ
下部
必ず
着用
パリエット
療養
胆管炎
かしら
ただ
ン
かかる
臨床
塩
わけ
腫大
リンパ球分画
早期離床
帰っ
舌
医療
トラムセット
８時
初めて
左手
軟膏塗布
３時
Ｃｈｏ
行か
弱い
再建
血尿
##マ
抜針
喘息
ＭＰ
Ｆｒ
ＴＳ
切り替え
ホセイゴ
全摘
打ち
につき
ともに
ＨＣＶ
すぎ
やはり
##ｌｏ
１５分
##ｒ
血流
進める
血圧低下
性状
示唆
ラコール
##ロ
パウチ
咽頭
尿管
ＥＳＤ
狭心症
Ｃｒ
臥
ロキソプロフェン
利尿剤
経緯
##ｙ
顎
全て
フェンタニル
言う
保持
大腸
不自由
ＣＲＴ
ペース
飲ま
##ｌａ
字
２０分
腎機能障害
歩行安定
活動
できれ
ＣＥＡ
熱発
とっ
ないと
顆粒
下腹部
抗凝固
連日
創
センサー
ＦＴ
クラビット
ごと
食道癌
清拭
カン
元
##エ
近く
動悸
ラウンジ
##う
付着
木
ＩＤ
ガス
満感
よかっ
##多発
いただけれ
##両
セレコックス
Ｂａｓｏ
##ー
姿
意欲
プラビックス
膜
##５
優位
エンシュア
主食
ちゃ
剥離
縦
ＶＣ
自尿
タイミング
ＡＦ
首
合併
途中
##心
歳
##ｒａ
眼瞼結膜
搾乳
ＯＡ
めまい
再び
出て
５６日
補正
##ｔａ
ＦｉＯ
来る
両肺
急
長期
##さ
マット
##ｄｅ
基本
食欲不振
通常
クール
アズノール
##ル
##レ
##な
提言
ＣＳ
ＨＰ
低め
##慢性
もう少し
乏しい
セロクエル
##４
一緒
メチコバール
欲しい
麻酔
デカドロン
上部
でる
どちら
ＮＩＴ
設
Ｄａｙ
４２日
てんかん
ＧＥＭ
##外
ＵＳ
胃癌
未満
パンフレット
勧め
亢進
号
日程
かける
検体
##ｎ
かっ
白色
端
骨髄抑制
##バ
膿瘍
全身麻酔
下がっ
##ド
明後日
夜勤帯
右足
嫌
かかりつけ
頂け
努める
ロヒプノール
転記
床上
える
なくなっ
##ｍｏ
神経症状
大きい
波
進ん
##ｎｏ
脳波
利尿
両眼点眼
眠気
金曜日
陰
すすめ
##ｓｅ
腸
教授
自然
ありません
がち
７０日
身体所見
##く
口内炎
##ラ
座っ
造影剤
補給
戻る
頂けれ
ネブライザー
排便なし
新規
いれ
嚢胞
製剤
歯
家で
休み
ＬＹＭ
車椅子移乗
訴える
時刻
##ａｎ
眼球結膜
##時
返事
上がっ
もしくは
収縮
金
どの
Ｎｏ
麻酔科
##カ
しびれ
腋窩
左足
授乳
包帯
ＨＥ
今週
出生
フェリチン
意識障害
やる
準じ
##肝
時々
あんまり
ＤＲ
１０日
##イ
内用
末
いただけ
##筋
##下肢
##ｔｉ
白内障
##ｌｉ
受ける
ＳＤ
わずか
##Ｕ
着
皮
皮下
一番
難病
こそ
関節痛
ｄｏｓｅ
帰り
張り
センノシド
減少率
辛い
ｏｐｅ
動く
空気
そのため
自ら
ＡＩ
落ち着き
開眼
生年月日
昨夜
定期
疑問
スキップ
尿意
感覚
仙骨
##急性
前腕
士
１本
７時
込み
##ビ
入力
Ｐｔ
##ｏｎ
ス
腹部膨満
外側
抗癌
若干
品
径
取れ
チラーヂン
２時
##腎
カロリー
腸炎
歩く
カンファレンス
糖
直接
申し訳
##ｗ
麻
Ｇｒａｄｅ
Ｒｅｔｉ
ブラ
１０割
週間
代
＾
##ニ
漸減
覚え
ＫＥＴ
認めません
在宅
##ｘ
確実
６０日
元々
創部痛
式
ＰＶ
薬物
緊張
退院前
付近
望ましい
ロピオン
ａｆｅｂｒｉｌｅ
プルゼニド
##み
##神経
南
４０分
ＰＴＩＮＲ
合わ
##見
うち
ＦＥＶ
弱
外用
食思不振
下記
Ｇ１
尿培
端坐位
##ｒｏ
ｇｒａｄｅ
##気
##オ
##シ
##ｄｉ
下腿浮腫
直前
頻度
生理
鼻腔
飲め
申請
そこ
Ｓｅｇ
次
一時的
消毒
##ミ
淡血性
蜂窩織炎
細粒
消退
田
##サ
安楽
##胃
体幹
代謝
苦しく
##ｋ
限り
腹腔
栄養士
達成
##ｍａ
母乳
##脳
作業
聞き
パン
悪寒
リード
##Ｋ
腸蠕動
唾液
アセリオ
##チ
水様便
うがい
こんな
補充
断
皮下注
５分
##ン
かかっ
分娩
##わ
統合失調症
##イン
##手
しながら
都度
浸潤影
±
不足
ＰＧ
モニタリング
##日
精神状態
どうぞ
ｐｅｎｄｉｎｇ
引ける
ミトン
滲出
##無
める
両手
遷延
頻脈
炎
認知
Ｐｒｏ
正常範囲
誠に
##ｅｎ
アムロジピン
完全
Ｐａ
アダラート
傷
梗塞
２００８年
対処
腕
歩行器
１時
慣れ
フェブリク
ＤＯＢ
一過性
肝胆道系酵素
腫脹なし
胃瘻
料
##ベ
腔
アタラックス
階段
##ノ
心音
筋力
ソフト
##ら
確定
閉塞性
張っ
設置
スライディングスケール
よる
ＳＡＴ
状態悪化
有意
選択
静
ガスター
やめ
効い
我慢
要する
ＲＴ
坐薬
吐き気
慎重
一緒に
血清
高尿酸血症
##ク
##ｔｅ
離脱
帰宅
間歇
黄染
パット
形
##ｈ
##ｏｒ
##術後
減少傾向
もし
自力
ツムラ
せい
歩き
陳旧性
症状改善
朝方
Ｐｒｏｔ
コントロール不良
言葉
##ｃａ
ましょ
##ｖ
Ａｇ
ｏｕｔ
アムロジン
背中
聞く
検索
腎機能低下
ぐらい
否定的
疼痛管理
妹
有
ｃＴ
開腹
図る
拘束
さっき
マッサージ
把握
腰椎
##出血
心疾患
長く
良かっ
援助
ヒューマログ
に関する
おい
４時
ル
ＥＮＢＤ
姿勢
見える
どこ
自体
火
全く
開放
濃度
問う
残っ
火曜日
波形
形態
小
ｉｎｇ
通じ
##デ
髄液
性病変
北
ユナシン
ＪＣＳＩ
うえ
つ
##分
##ｃｏ
起こし
変え
全部
救急外来
##血管
再診
精神的
苦しい
##ｅｒ
滲出液
悪化なし
##と
肝転移
摂食
頓服
ＩＡ
ヘルニア
##プロ
分かり
直近
##ジ
依然
取り
##水
リウマチ
１度
実際
ｓｔａｇｅ
同席
混注
主剤
自己注射
妄想
半分
あげ
デパス
車椅子乗車
感染予防
入る
うん
学
活動性
フォローアップ
ポンプ
２４時間
放射線治療
粘膜
啼泣
ｓｅｃ
個室
負担
操作
センター
出す
予想
意識清明
ヘパリン化
ＩＬ
難聴
６度
##ふ
引け
枕
逸脱
姉
動い
ＮＲＳ
行
##も
追っ
ショック
##６
わりなし
すっきり
検査結果
神経所見
ボルタレン
用法
##ｓｔ
鏡
プレドニゾロン
低血
長
セッティング
##異常
ＲＶ
Ｆｅ
会計
##動脈
飲水励行
ＭＧ
大学
菌
どおり
ＳＬＥ
除水
抜け
隔離
心房細動
寝る
##ｓｉ
うつ病
だめ
追う
パッド
##体
治癒
甲状腺
##日中
血小板
腰部
だから
顎歯
アマリール
ベット
##関節
みとめ
キャッチ
ある程度
疲労
カ
側臥
不十分
よって
いか
種
中等度
好き
看護介入
病気
##ｆ
とる
咽頭痛
ＵＲＯ
ろ
禁
頑張っ
ＣＥＺ
損傷
何度
休息
カニューレ
##尿
##腹部
自
ピコスルファート
気味
最大
４５分
##セ
傾眠傾向
施設
薬疹
ＡＭＬ
落ち
て当
診療
背部痛
詳細不明
発疹
バンコマイシン
ＳＢＴ
ｍｉｌｄ
重大
落ち着く
マーキング
重症
縁
非常
同室者
変
虚血性
む
##再
やり
減
##ｃｅ
##す
降圧
近い
##ｍｅ
比
ＶＤ
ジン
高血糖
ＰＭ１
増強なし
なきゃ
症例
糖症状
ＣＯＰＤ
視野
階
ダメ
もらえ
##足
保て
違う
昨晩
骨転移
##キ
写真
急変
水曜日
金曜
ころ
紙
ｃａｌｌ
単
##取り
画像所見
破棄
寛解
前方
低く
だって
過ごせる
５時
酸
なるべく
枠
ｓｈａｒｐ
喉頭
鼡径
##ｂｉ
困難感なし
##テ
##ダ
右下
１２時間
切断
##非
直母
回収
２００７年
当直医
進ま
直
##ガ
まず
変わっ
Ｂｐ
希死念慮
浣腸
検温
ＥＰ
ＲＣＡ
間違い
利用
白湯
域
センケツ
機能低下
ＫＬ
起き上がり
腸管
ＥＮＴ
幻聴
##生
上腕
##ッ
ｓｉｓ
ＲＯＭ
アルファロール
悪性腫瘍
２０日
ＤＡ
実施日
##ん
毎回
黄色
下痢便
気管切開
感冒
行える
汚染
伴っ
産褥
ｔｙｐｅ
別
場
存在
がん
離
急激
ａｉｒ
##モ
ストレッチャー
基本的
右上
含嗽
ＣｙＡ
頸動脈
低栄養
傾眠
入ら
てんとう虫
漿液性
そんなに
わかっ
好中球
排出
なん
ロゼレム
抗酸菌
過ごせ
骨粗鬆症
##め
呼吸音清
胃部不快感
##パ
ネオーラル
転倒リスク
繰り返す
ＧＣＳ
ルーム
ＦＵ
肝機能障害
高リスク
ＡＬＬ
緑内障
同時に
鎖骨
ＧＥ
退室
増やし
飲食
##重
##ｒｉ
半量
##８
##ボ
甲状腺機能低下症
肺癌
オペ
ｓｔａｂｌｅ
##Ｗ
低リスク
ＰＨ
ＰＢ
ｏｎ
入浴
入れる
リピトール
６日
喉
すごく
悪心
ＥＵＳ
ジプレキサ
導
##フ
##ナ
ＤＬＢＣＬ
木曜日
息切れ
セファメジン
７枚
カラヤ
図っ
塩酸
間隔
すべて
味
そ
やすく
各種
終わっ
レニベース
抗原
ＣｈＥ
ムラ
発赤なし
体位交換
待っ
５０分
とり
自己抜去
上下
冊
なんて
血管炎
腹壁
##発
リーク
隔
なれ
１年
シグマート
半ば
仰臥位
##膵
浸出
推奨
こんなに
##多
ニフレック
当初
血便
気管支鏡
出血量
ＨＡ
関節リウマチ
口腔
疲労感
下肢浮腫
続ける
##鼻
壊死
兄
胆管
シンチ
目指す
菌血症
２本
ＤＨ
まった
怖い
介護
##血
##長
ペースメーカー
ペイン
ビーフ
まっ
頬
吻合部
反
管出血
##ｖｉ
##ピ
帰る
ｔｅｎｄｅｒｎｅｓｓ
因子
往診
ファースト
アラーム
スト
グラン
##ｉｎｇ
ＰＶＣ
##ム
まったく
血小板減少
テガダーム
胆道
直腸癌
これから
最後
といった
群
乏しく
多発
##ａｒ
替え
スパイロ
ニョウ
##ツ
内側
##出
対策
ＡＮＣＡ
抜歯
まあ
カバー
色調
##ｍｉ
戻し
塩分
##Ｊ
リバロ
臍
ＣＡＢＧ
ＧＳ
手術室
##ｄａ
ねー
血球減少
プログラフ
##便
取っ
ｍａｓｓ
血ガス
既に
紹介状
うまく
続き
##ち
##ヒ
##だ
入れ替え
それぞれ
##三
押し
層
##ｐｒｏ
ｇｏｏｄ
##ウ
椎
リンパ腫
創痛
ＲＣＣ
健
共に
配慮
々
水疱
正中
左前腕
受持
いただける
フェロミア
##に
##状
リン
ＣＳＦ
見学
なぁ
困っ
だし
理解力
４時間
低Ｎａ血症
直腸
友人
##型
肥満
ポリープ
##食
##９
レスキュー
ムセ
ｌｅ
振戦
ＨＩＶ
ＵＰ
気管支喘息
予後
月頃
中途覚醒
体重測定
すでに
数回
軽度低下
下げ
んで
慢性
各
発
朝カン
気分転換
おしっこ
上層
##ｎｅ
##腸
腎障害
において
オルメテック
Ｈｂ低下
低血圧
##的
環境整備
ＴＡＥ
##ネ
多数
２３日
契機
便潜血
ＰＳＡ
良眠
小児
ちゃんと
搬送
徐脈
目立つ
土曜日
##ｔｈ
ブ
最初
ＥＤ
セルシン
誘発
小児科
御机
良
##ば
弟
窩
すすめる
ワイパックス
改めて
ブロプレス
少なくとも
ク
肝臓
肥厚
下垂
売店
クリニカル
混濁
##人
軽
屈曲
迎え
##ｃｈ
ずれ
置い
色々
孔
ラ
職業
連続
混乱
複数
精神症状
要因
陰影
ＳＯ
便秘時
抗体陽性
##っ
デルモベート
つける
了解
ミカルディス
クランプ
なんだか
１秒
腎不全
##通
ごく
衣
いろいろ
##指
名前
リンパ節腫大
Ｂａｎｄ
後方
なんとか
ど
ＧＡ
トラゼンタ
##ｓｔａ
ＴＩ
急性期
リ
血球
教え
萎縮
もん
ａｌ
放射線科
##ハ
尿検査
ブドウ糖
##メ
便意
前立腺癌
聴取可
言え
ロ
勤務
##ｐｉ
ＢＣ
世話
件
全体的
ＦＤＰ
抵抗
リンパ節転移
ＴＥＩＣ
あるいは
よー
Ｌａｃ
試し
ヒューマリン
##頸部
１５日
主人
ガスモチン
かかり
尿路感染
Ｌｇ
鎮痛剤使用
肺転移
神経障害
ＳＷ
夜勤
##全
板
歯磨き
選択肢
好中球減少
##過
##創部
前向き
緩徐
点鼻
病態
ミン
石灰化
呼吸困難
本当に
##れ
ウルソ
眠っ
結構
立て
##感染
##７
速やか
なんとも
子宮筋腫
ＩＮ
死亡
##顔面
作動
多かっ
おそらく
本高
戻り
##ブ
尋ねる
反射
ひとまず
エクア
参考
##胸部
増悪傾向
注意点
球
半年
炎症所見
脳外科
２５日
ｕｐ
流れ
行為
あけ
関節炎
Ｎｓ
ＧＶ
表皮剥離
１人
流速
術式
切り
都合
減らし
胃瘻造設
ｌｙ
水曜
制限食
##ｍｍ
ＩＭ
クリーム
ふらつきあり
東京
##眼
構音障害
御多忙
歩け
もっと
大量
たくさん
##ひ
観
秒
清潔
##や
侵襲
サマリー
ＭＢ
Ｈｍｇ
##運動
父親
ランソプラゾール
弱め
２００６年
遅延
##静脈
不整
心筋梗塞
いら
ａＮ
喘鳴
支障
分類
フラッシュ
１２日
在
狭窄症
##脱
動かし
##ＩＩ
ＩＶＨ
保湿
ＯＮ
有効
対光反射
アイス
木曜
総合
異常なし
ＩｇＭ
そんな
##ファ
##膀胱
##ｐｏ
６時間
腹膜播種
８割
##ａｓ
##呼吸
伸展
読ん
左膝
ＴＷＩ
性障害
か月
股関節
遠
患肢
しみ
状態変化
ＶＰ
ＰＰＩ
雑音
##コン
ｔａｐｅｒ
山
バイパス
いっぱい
動か
更衣
きれい
ゲンタシン
極
発汗
作っ
主体
車
つらい
投薬
陰部
椅子
##新
うる
##朝
##定
シ
バリアンス
肝胆
浸出液
喀出
Ｔｈ
ばかり
日間
興奮
介護保険
歯科
種類
づらい
膿
ｋｅｅｐ
頂ける
ペンローズ
癒着
脈
##ｍｉｎ
心拡大
５回
含む
精神面
袋
ｄｉｍｅｒ
集積
ＡＳＯ
蛋白
コミュニケーション
##少量
２人
頻尿
ド
そういう
血症
禁煙
スクリーニング
５秒
リエゾン
ゾルピデム
整理
悪性リンパ腫
前処置
ット
ＥＴ
踵
直し
ｏｒ
状況確認
整え
一方
起
留意
ステーション
更に
弾性
除外
ほか
倍
人工呼吸器
##て
避け
隔日
分食
副鼻
触れ
Ｓｐｏ
火曜
付き
会社
定期的
##引き
##腸管
抜い
もらえる
粉砕
卵巣
乳頭
先週
モーラステープ
細菌
優先
貼り
症状出現
発生
##え
無気肺
湿性咳嗽
点滴棒
状態変
布団
かけて
使う
腎盂腎炎
メドロール
デジレル
多少
計算
穿孔
##ｓｕ
##二
現行
腹緊
矛盾
塗抹
敗血症
ＣＨＤＦ
多め
##脂肪
##自己
ＳＬ
ＭＤ
##子宮
記憶
##胸
異常所見なし
腺癌
##ご
アクトス
イメージ
正中創
帯状疱疹
エビリファイ
麻酔同意書
結石
気切
食欲低下
原発
##Ｘ
ｔｏｔａｌ
記入
マイペース
図れ
物品
要素
ＳＭＢＧ
ＥＣＴ
ＳＨ
バルーン
##白色
路
同年
ザイロリック
視
Ｂｌａｓｔ
ム
小腸
あー
多発性
待機
ＸＰ
発語
##ディ
息
##圧
有難う
##入
鼻汁
設術
##小腸
##ｖｅ
７度
書い
転入
実施予定
だり
ける
ポータブルトイレ
容易
大建中湯
長い
最も
夕分
中断
尿流出良好
ＡＮ
昼間
枝
約束
##ｍｇ
逆流
アドヒアランス
１８日
高脂血症
意見
ＦＧ
癌性
口唇
認識
〇
０秒
廃用
閉眼
##痛
切れ
動脈瘤
ｈｙｐｏ
##け
##１０
触れる
感じる
洗髪
常に
核
機嫌
ＰＮ
前面
かわり
併せ
##半
提供
月経
学校
##寝
肺雑音なし
セイブル
##症状
解決
細菌性
問い合わせ
いや
オフ
結核
バッグ
＂
制吐剤
効か
##ぼ
両足
眠い
２秒
##直腸
合
##東
工夫
見守る
根治
視力
ｐｅａｋｏｕｔ
支持
エレンタール
意思
##学
十二指腸
咽喉
補食
ＣＶＡ
なー
著明
開頭
##歯
Ｄｓ
冠動脈
テグレトール
上げる
診療情報提供書
経験
頸静脈
分かっ
意識消失
原病
気管孔
１６日
交流
だるい
欠損
エンドキサン
温
腹満感
何とも
使い
自己喀痰
っと
同定
慢性腎不全
ＤＩＣ
##頭
ＬＶＡＤ
トーワ
サムスカ
徴候なし
自由
腸瘻
３日間
びらん
透明
３秒
淡々血性
ワソラン
中等
コンプライアンス
自己血
教示
##ｉｎｅ
爪
##症
１７日
##歩行
ストーマ
ズボン
グルカン
##ｃｏｎ
お手数
尿路感染症
心雑音なし
禁止
剥がれ
仕方
２４日
サクション
感冒症状
卵
前立腺
歩行可能
歩容
落ち着か
経腸栄養
下がり
タ
ディオバン
背景
播種
か所
予測
リボトリール
多忙
腸骨
腫瘍マーカー
ブロチゾラム
末梢冷感なし
大丈夫だよ
気胸
込ん
買っ
リクシアナ
Ｇ２
食道炎
ＦＦＰ
増大傾向
行け
吻合
２００５年
体力
サービス
前日比
２年
しく
院外
スライディング
呼吸状態安定
外す
こう
１３日
脳症
免疫抑制剤
言い
機
夜中
##ｓｐ
##食道
かい
ポア
非
うー
日曜
共
祖母
##で
セルフケア
ヒルドイドソフト
決まっ
幻覚
##病
痛かっ
##ａｃ
ｕｓ
横行
懸念
来ら
慢性心不全
副
川
##赤
流涙
リズム
転帰
ｍＩＵ
ｃｏｌｉ
大動脈
##ｍｌ
##動
二
お茶
５割
肝硬変
##側
正球性
材料
残る
有り
麻薬
アスパラ
##転
始める
感染性
付
アルコール
日曜日
ボナロン
##咽頭
##ｃｉ
口頭
異常所見
抜鉤
ｓｉｇｎ
未定
免疫
最小限
病院食
持ち
##じ
ｍｅｄｉｃａｔｉｏｎ
##四肢
骨髄
２２日
ｓｏｆｔ
泊
開胸
残り
中隔
装着中
根
ガイド
ＰＩ
網膜症
ＴＴＥ
に転
グル音
普通便
膵炎
ック
かつ
ＣＯ２
近
膨隆
発達
ＮＤ
往復
ｐａｉｎ
調
紫斑
抗血小板
動かす
嗜好
まとめ
トラゾドン
栄養剤
乳
イ
##ｌｌ
プレタール
つか
血糖変動
ＶＡＤ
ール
待つ
潜血
結紮
至
速度
８秒
新しい
ＬＮ
２６日
憎悪
難しく
エピカテ
パッチ
ＰＤＡ
区
尿失禁
シーツ
##よ
聞こえ
フランドルテープ
##ポ
痒い
アレルギー歴
吐気
気道浄化
##ｕｓ
周り
三
６秒
意識レベルＩ
Ｓ状結腸癌
押す
行なっ
４秒
いま
教育
習得
ＣＩ
ＦＳ
Ｈ２
ＳＢＰ
低Ｋ血症
自己調節
昇降
きちんと
安静度拡大
メロペン
まる
ｆｒ
精通
急性
性腎症
ｃｌａｓｓ
皮下気腫
高度
アローゼン
生じる
##本
##ペ
７秒
ｓｋｉｐ
アレロック
##ｇｅ
かから
突然
吃逆
取る
５０日
##同
ｂｒｕｉｔ
植込み
サトウザルベ
獲得
小さい
不全
ハイドロコートン
ＵＩＢＣ
ｚ
ノルバスク
イライラ
ゲーム
周
置き
ツ
ノバミン
４９日
##む
次女
##全身
##時折
端座
目指し
虚血
Ｖｉｔａｌ
談笑
##ｔｅｒ
少なめ
薄い
なくなり
表面
やっと
歩
生保
とりあえず
ソルデム
何とか
下がる
ＵＴＩ
食品
そろそろ
尿道
理学
イン
９秒
##数
服
やら
ＢＡ
硬結
ＣＯ
食堂
増加傾向
アンテベート
暮らし
##プ
人工
ブロック
させ
ｔｅ
ラックビー
##ｓｓ
シルキー
吐い
Ａｂｘ
２７日
戻す
１９日
##単
ＯＰＥ
にくく
目立た
厳しい
##ず
なあ
粘
##耳
乗車
胆嚢
意味
つく
##喉頭
恐れ
みんな
ヨーグルト
２０歳
〈
腫
とれる
げ
##ｔｒａ
ビオフェルミン
##排便
プロカルシトニン
ベイスン
守れ
デイルーム
関与
剖検
起こす
##ど
##ゴ
バック
セルベックス
##乳
一昨日
血液ガス
リウマトレックス
エアー
循内
お変
持込み
先端
ｐｔ
頚
吸収
きれ
##ｐｈ
配膳
３分
防止
##甲状腺
フットポンプ
空腹
踏まえ
Ｘ線
伺う
預かり
残尿感
胸腹部
開け
まり
##度
尿蛋白
強皮症
部痛
末梢冷感
##ＣＴ
ＷＦ
ｅｄｅｍａ
お勧め
##残
##自
##左下肢
箇所
付属器
冷感
##強
〉
##ＬＶ
##舌
不可能
番
風呂
ＡｒａＣ
もっ
ＨＦ
ＶＳＤ
膝関節
痒み
検討中
痛みはない
##管
不能
##ゼ
１つ
控え
体幹抑制
ＳＡＳ
いわ
乳腺
身
脚
絶
ｃｔｏｍｙ
##山
ウテメリン
##田
誤
検診
##趾
黒色便
##ぶ
残し
肘
マ
むしろ
試みる
内部
##ｃｋ
ＹＥＳ
ごはん
Ｌｙｍ
茶色
集中
８時間
##血栓
不満
##ｕｎ
残尿
髄膜炎
作用
引き
熱源
外れ
収縮期
例
水分摂取
止まっ
装具
１１日
紙オムツ
##グ
尾
切っ
橈骨
疎通
３５分
地域
イーケプラ
多
##ｃｙ
ｃｈｅｃｋ
##る
##平
提示
##様
ピークアウト
ア
##プレ
ター
上がる
牛乳
##ック
温罨法
疑っ
ペーシング
うつ
アキネトン
下咽頭癌
##断
教室
土曜
空腸
湿疹
末梢神経障害
応便
車いす
以内
ソル
排膿
##ｐａ
##白
ＴＣＲ
同室
##リン
持続点滴
だら
それでも
##末梢
依然として
ソリタ
ｔｕｂｅ
荷重
とのこ
ＤＬ
変形
逆流性
間違え
切離
##目
ハルシオン
ＡＥ
超音波
転倒リスク高い
##ｖｅｒ
硬い
チン
地
排尿時痛
リンパ節郭清
に関しまして
遅れ
理解度
画
土日
無事
ＴＡＣＥ
目安
虫垂炎
尿閉
##先
図り
ＩｇＡ
長時間
光線
しい
大き
手すり
初期
##腫瘍
浮腫み
インフルエンザ
勉強
子供
食思低下
##創
全身倦怠感
処理
っていう
##ｃｕ
動け
立ち上がり
レポート
ｓｃｏｒｅ
一致
杯
フロモックス
##合
レバミピド
##ｚ
卵巣癌
外傷
換気
テーブル
アクティブ
角
瞳孔
##ｆｉ
探し
治まっ
##回
タオル
コントミン
筋腫
きり
加
日付
Ａｎ
皮膚炎
ニカルジピン
歩行ふらつき
##ｈｅ
##ｔｒｏ
胎動
ＬＥ
ち
２５分
夜間良眠
清明
中間
吐き
けれど
接続
胆汁
きた
ＩＲ
伺い
マルク
肉芽
勧める
リハビリテーション
雑音なし
あの
##ｂｅ
示し
十
周辺
リンパ節腫脹
カウント
##ｏｆ
シロップ
電解質異常
無呼吸
呼ん
##Ｉｎ
散在
血圧変動
ねぇ
ＫＵ
メモ
８日
##右肺
泥状便
３年
上顎
ヴィーン
Ｋ２
##ｃａｌ
腫れ
##化
立っ
オープン
##ゾ
肝炎
##ｓａ
亜全摘
ＯＵＴ
折
一日
いける
##間
ＳＣＣ
嗄声
訪問看護
落ち着かない
右膝
後入
##近
登録
##口腔内
ムコダイン
用意
ＴＰＨＡ
あろ
フォリアミン
２度
井
不
ヒアレイン
##フェ
具合
##ケ
おこなっ
静か
跛行
##ソ
要注意
手足
Ｖ２
なんで
エディロール
細動
キット
##ｓｈ
最終的
失神
有害事象なし
##東京
ｉｎｄ
輸血同意書
触る
２００４年
腹満
##成
脳神経外科
呼ぶ
中咽頭
ｓｔａｇｅＩＶ
##腹
医大
中央
場面
##ろ
##口
カルシウム
告知
見せ
上がり
チ
骨髄炎
綿
付き添わ
##両下肢
打っ
##腺
ボン
任意入院
コルセット
胆
ひどく
ヘパロック
経腸
ｂａｌａｎｃｅ
保つ
硬膜外
弱く
湯
変形性
副腎
##ホ
リー
膵癌
迷惑
サイズ
腰部脊柱管
ｅｐｉ
##再度
合計
ｆｌａｔ
ジュース
ＬＶ
一つ
＞＜
薄く
距離
##Ｐｒｏ
急性増悪
尿生化
本日排便
##原
番号
示す
具体
##ｎｉ
強かっ
##冷
音正常
##ｆｅ
帝王切開
症侯群
##スト
疼痛緩和
##胸水
##そ
機会
とくに
ｉｌ
胃潰瘍
加算
肺腺癌
ドルミカム
##頚部
##フィ
３７度
病名
判明
##ｄａｙ
ート
顕著
スタンバイ
タケキャブ
血痰
救急搬送
##ｄＬ
向上
断眠
##ｌｙ
焼灼
##ｔｉｏｎ
感染兆候
谷
##ｐｅ
ＩＶＩｇ
リフレックス
要約
起きる
１枚
##ｏｓ
##年
ＭＤＳ
##ｔｈｅ
内視鏡検査
電気
質
曖昧
頑張り
重要
神経学的所見
##下痢
ニフェジピン
》
《
ａｓｙｎｅｒｇｙ
うーん
掌
強
マーカー
同居
国
##有
いえ
ＦＡ
塞栓
装置
ＮＧ
##トリ
##Ｒｅ
正確
別紙
ＩＣＤ
除
Ｓｃ
買い物
併診
全身性強皮症
注意喚起
ｉｖ
##癌
意向
風邪
腺腫
答え
至っ
ペン
不安定
知識
息苦しさ
露出
治験
##粘膜
エパデール
##ぐ
増える
裏
大腸癌
さん
局
硬く
真菌
スケジュール
迅速
腔炎
嚢
性格
便失禁
ｔｉｏｎ
シース
周性
##ｄｏ
激しく
ビール
呈し
小さく
乳緊
##Ｚ
湿潤
じ
６回
##ね
##プラ
脂肪
腹膜炎
眼振
ＤＳ
至ら
##加
描出
抑うつ状態
ノン
テルミール
結節影
なので
##ｄｕ
ｆｏｃｕｓ
母様
ＡＡ
わかる
それほど
レスタミン
び
水頭症
右肩
面接
ＩＶＩＧ
足り
見当識
##意識
とても
できるだけ
##び
該当
ラン
腹膜
腫瘍摘出
トライ
ｒｅ
筋炎
ｌｔ
##直
硬便
レボフロキサシン
ぎ
複視
ｔｅｓｔ
痕
大声
膠原病
違い
シャント音
乳酸
ホルモン
ユベラ
##力
自己調節可
性別
ＣＸＰ
機会飲酒
話し合い
先行
お粥
挿肛
心窩部痛
避ける
瘤
向き
モルヒネ
２９日
##不安
腎症
体熱感
どうしても
内出血
多発肝転移
乳癌
研修医
##感
携帯
後疼痛
##黄色
歩行困難
カンジダ
ナース
##ｆｏｒ
再挿入
痛くなる
Ｃｐ
早い
球菌
休養
透視
##ｍｐ
交代
手洗い
チアノーゼ
ト
遅く
痰量
フレックス
簡単
コーヒー
##炎症
軽く
右胸水
##ｍｕ
終日
スプーン
ＡＳＤ
身障
上級
連
超え
ＰＶＣ単発
尿混濁
上皮
目立っ
呼吸不全
使わ
##皮下
ニコランジル
側頭葉
あわせ
Ｃｌａｓｓ
ＧＮＲ
すごい
##明
充血
なっちゃった
涙
早朝
橋
７割
##放
隣
どれ
早期胃癌
自覚なし
スピロノラクトン
相
ｐｏ
１２分
たまに
腎生検
ＣＨＦ
丁寧
腎機能悪化
すみません
解離
拡張型心筋症
##手指
管内
##ｔｉｃ
間に合わ
道
五分粥
口渇
クエン酸
ｖｉｃｒｙｌ
靴
ース
形成外科
覚醒時
けいれん
ｋｃａｌＰｒｏ
鉄剤
ＵＮ
２３分
はじめ
ＶＶ
##ール
お昼
流量
##失
寒気
要請
尿量減少
もう一度
切
胆嚢炎
##ぎ
ＭＫ
徹底
期限
応答
ックス
胆石
トラフ
たち
プラス
##右下肢
便秘傾向
試み
自信
口調
デパケン
源
エルネオパ
##抗
##広
傍
胆摘
眠れる
破水感
##脾
高Ｋ血症
##骨髄
一応
疑わしい
##青
液体貯留
５５分
肋骨
洞
老年病
パターン
##下腿
熱感なし
胃痛
抑え
摘便
混合
降圧剤
ｃｒａｃｋｌｅ
幽門
アレグラ
硬膜外麻酔
尻
成分
ｔｏｒ
ａｄｅｎｏｃａｒｃｉｎｏｍａ
危険性
ベガモックス
挙げ
胸腔鏡
##葉
##Ｑ
石
終わり
副食
##膜
ｎｅｃｋ
##被
##ｇｒａｄｅ
カリウム
人工肛門
追記
停止
又は
Ｅｐｉ
マキシピーム
ｃｅ
オーバー
重
独居
決める
ＣＬＤＭ
ナ
アスペル
触診
脂肪肝
##硬
##閉塞
ＰＩＰ
総胆管結石
出血傾向
総合病院
肝生検
異常連絡なし
に従い
##副
ウエスタン
##行
汗
腎性貧血
##ａｂ
開口
新生児
##ラン
##発熱
土
ＯＨ
ＥＳＢＬ
ｇｄｉｖｑ
##ティ
ｈｙｄｒａｔｉｏｎ
##核
鉄欠乏性
２０本
##ない
ｂｉｌ
缶
##膝
こまめ
作る
症状増悪
レ
Ｕ２
ヘルパー
創部感染
覚め
医院
認知機能
区域
短縮
怒張
可否
たび
尿道カテーテル
##正常
##肺炎
ＢＯＸ
##解
ＬＳＴ
旭化成
医療保護入院
##子
##早
ｗｈｅｅｚｅ
拘縮
巡視
門
##フル
Ｉｎ
突出
殻
##嘔吐
行なう
第一
鼠径部
ロキソニンテープ
ＯＢ
##左肺
感受性
寒い
左肩
ｉｎｅ
荷物
ｗｅｅｋ
キシロカイン
育児
皮膚筋炎
##薬
##食欲
きざみ
１か月
ップ
肺高血圧症
２００３年
ｎｏｍｕｒｍｕｒ
用紙
##ＩＶ
起立性
辺り
ｆｏｌｌｏｗ
オキノーム散
歩ける
ＨＴＮ
局所
##クロ
俺
１３分
更新
ｒａｄｉａｌ
３本
ｒｔ
三分
壁肥厚
５時間
ｌｉｎｅ
二人
Ｇｒ
キュティポア
##総
グルファスト
##先天性
異型
それで
３０本
３割
シーネ
辺縁
なに
節
##気分
有意狭窄
##ｗｉｔｈ
心筋症
##常
コ
８回
ｎｏｇｒｏｗｔｈ
飲水制限
腹水穿刺
おなか
##気管支
１８分
月中旬
##脊髄
汎血球減少
依存
##ＰＳ
##ゆ
##開
##ａｐ
受傷
中耳炎
増殖
心移植
片
##量
ロン
っけ
ねえ
対
膣
撮像
ＰＣＰ
##痰
子宮体癌
##底
おさまっ
##ｕｔ
２４分
状態変わらず
僕
アルコール性
##カル
ｍｅｄ
１４分
氏名
休ん
２３時間
悪くなる
１９分
１７分
立
年間
空
##疼痛
１６分
脛骨
統一
１１分
ギルス
無かっ
思
ＲＦ
##障害
リツキサン
ミ
そうですね
眠前薬
当て
うっ血性
読書
尖
到着
ＰＡＣ
おむつ
空い
サイン
##面
ＰＣＲ
肺高血圧
２２分
べ
ｐｉｔｔｉｎｇｅｄｅｍａ
睡眠薬
##肺野
皮膚生検
横隔膜
肝細胞癌
##ほ
戻ら
２１分
インスリン注射
感覚障害
##十二指腸
２８分
ＣＬ
ＶＩ
算定
ワセリン
##２０
２セット
トレシーバ
痒く
頭蓋
２９分
テトラミド
２７分
##周囲
ｂｉｃｅｐｓ
ＲＩ
##アン
局所麻酔
２６分
##大腸
９割
##乳頭
ｐＴ
##トラ
##主
ＴＵＲ
酸素化不良
##バイ
カテコラミン
ヒルドイド
##気道
##他
##ｇｉ
##本日
フルイトラン
ｃｈ
アジルバ
能力
聴診
##卵巣
４２分
３７分
##悪性
３４分
##胆嚢
がっ
こっち
##軟
４６分
##着
ｓｔ
行こ
いかが
排痰
込
##ｔａｌ
恐れ入り
筋層
４３分
打診
込む
４４分
コートリル
##交
いない
頚椎
呼吸性変動
アクトネル
ガーメント
白色痰
寝返り
##ｅｎｔ
３６分
尾骨
##変
アトルバスタチン
ノルバスク錠
ヘルベッサー
##浮腫
##咳嗽
歩行時ふらつき
習慣
##小脳
対し
内診
ＤＩ
４０歳
３３分
白血病
採用
##皮弁
３１分
##ｇａ
ｄａｙｓ
３８度
##皮
オメプラール
##野
##ｐｒｅ
始まっ
友達
知ら
滲出なし
３２分
５７分
進展
声帯
ルネスタ
ｂｉｏｐｓｙ
##ステ
Ｌｔ
痛む
ＢＳＣ
##ロー
常時
５３分
４８分
４７分
##深
３８分
脾
淡黄色
##顎
胆嚢摘出
##死
心療内科
３９分
返信
フ
診察上
書類
ニューロタン
料理
増やす
瘻
のち
ＮＯ
睡眠時無呼吸
苦手
５６分
聴力
##ｐｕ
１階
結局
５８分
##黒色
肺雑なし
##シン
じゃあ
膀胱炎
雑
共有
眼瞼
前頭葉
活動量
##立
５９分
４１分
けれ
ｄｕｌｌ
##乳房
ドナー
資料
##ｉｓ
Ｎｅｕ
ＩＥ
軽度発赤
４９分
独語
５２分
##フォ
５４分
セル
健康
アザ
尿漏れ
眠く
嗽
ＤＣＭ
##片
弓
筋緊張
倒れ
##ａｄ
##ｓｏ
圧排
サルコイドーシス
口腔外科
ネフローゼ
高信号
コールバック
３６度
イグザレルト
合い
術後再発
服薬指導
健康食品
漸増
赤色
必須
ＴＨ
ラッチ
明るい
膀胱癌
上手く
５１分
条件
##和
退
骨髄穿刺
茶
##Ｂｉ
浮遊物
##ｐｌａ
高校
##胆管
##骨盤
ＳＶＧ
##ズ
５年
サインバルタ
##持ち
白
１０本
こり
エピ
陰性化
松葉杖
イド
屈
##嚢胞
ネシーナ
##何
##ｍｙ
##ｔｕ
ロペミン
##ｃｈｅ
ｃｈｅｍｏ
怠
具体的
レミケード
ムンテラ
骨骨折
職場
そちら
日本
短時間
Ａｄｅｎｏｃａｒｃｉｎｏｍａ
ｍｅｎｔ
##言語
ｔｒｉｃｅｐｓ
お母さん
##川
野菜
房
##狭窄
５度
##リー
##根
発現
筋膜
特発性
事前
グ
ＣＡＭ
８度
ふらつく
##ａｎｄ
ＴＰＮ
吸啜
ント
##ヘ
酒石酸
どうして
筋肉痛
シン
主病
５０歳
治
鍼
血漿
##壁
##ｓｔｅ
##実
ＧＰ
コアグラ
段
術後合併症
意識レベルクリア
ｃＴ３
これら
半キープ
わっ
次男
整える
気切部
右側臥位
##ｓｙ
２つ
活発
コップ
談話室
溜まっ
##細
緩慢
６０歳
臭
脊椎
今晩
病勢
##方
##腰椎
グラフト
ヒルナミン
ＥＣ
##期
『
##ット
構造
奥
』
下腹部痛
##潰瘍
ＰＰＶ
だんだん
ホットパック
抜き
引い
##精神
れれ
##弁
はず
ーム
脂質
窩部
今週末
ＤＰＡＰ
定量
ちゃい
切る
##ｒａｌ
##大動脈
メニュー
ｕｇ
大腸ポリープ
暗
動揺
##安
それ以降
Ｃｕｌｔｕｒｅ
ズ
３週間
準ずる
大分
持ち込み
視線
ｓｔｅｎｔ
##身体
変わる
ｓｉｏｎ
ｃｙｓｔ
ａｃｔｉｖｅ
どんな
ボグリボース
歩行障害
初
多弁
##理
接触
レベミル
再出血
翌
染色
要し
ｉｄ
部発赤
足関節
きたし
平均
脳出血
ｍｕｒｍｕｒ
起き上がる
ＬＱ
タイプ
不明言動
市
アルファカルシドール
点滴台
##肺動脈
レシカルボン
切開術
##消
##夜
読影
効く
渡す
イベント
絶対
上部消化管内視鏡
##思い
９日
後日
ウイルス
ドア
指導医
ＲＳ
過剰
ルーラン
増
鼻出血
混じり
膵管
パンツ
解消
腹部痛
##洞
心音整
比べる
ＦＰ
フル
村
##身
##ｂｏ
##サン
ダイアート
縮
アレルギー症状
眼底
癌再発
っぽい
子宮全摘
ＡＵＳ
##当
奇形
アンチゲネミア
ＤＶＤ
返却
##つか
##ｉｌ
肉
緑色
ＭＬ
##物
##ｓｔｉ
アド
終
今度
１０回
むけ
昼前
ゼチーア
実家
生着
皮膚症状
脱力
きか
##腸骨
瘻孔
##高度
リンパ浮腫
##１２
ｒａｔｉｏｎ
##１５
ＫＴ
髄注
原発巣
事故
乳房
実感
分け
ｓｉｎｕｓｒｈｙｔｈｍ
マイナス
深部
調べ
メジコン
##膿
知覚
##ｔｒｉ
２００２年
##熱型
ＨｕＲ
カット
日中排便
防ぐ
ベネトリン
カーテン
##Ｙ
オーグメンチン
調理
浮腫著明
Ｆ１
掻痒
腎炎
かわら
##北
効き
流し
肺炎像
アプローチ
コーチ
腎内
スリル
ナースステーション
逆
策
ソフティ
ルンバール
合っ
膝関節症
散見
昔
夫婦
等量
無症候性
前立腺肥大症
深呼吸
ファイバー
のしびれ
発作性心房
明確
キャンセル
リーマス
デブリ
##金
##左腎
Ｉｎｄｅｘ
慢性胃炎
##腹水
被疑
落ち込み
セルセプト
ｖｉｔａｌＢＴ
ＳｔａｇｅＩＶ
##音
急速
植皮
同院
肉眼
頚部リンパ節
皮下出血
##妊娠
血栓症
腰椎圧迫
特定
食前血糖
慢性腎臓病
創部問題なし
相応
らし
悪性
減らす
ｆｕｌｌ
３０歳
再検討
イントラリポス
血糖推移
再生
通っ
##いた
ホルター心電図
蓋
##溶
##低血糖
##母
満感なし
##転倒
婦人科
メン
０回
プラミール
見守っ
##ｅｄ
ステロイド性
ｌｌ
赤み
酸化
頸
病的
##台
ＭＲＡ
指先
##細胞
不明瞭
##腟
特
ａｃｔ
入眠困難
##そう
大腿骨
プログラム
気道
浅
ａｅｒｕｇｉｎｏｓａ
コンサル
異なる
頻発
ＰＶＣ散発
取れる
ｍｇｉｖ
##髄
糸
小脳
##たい
手順
##リンパ
##背
逆血
##昨日
##ｖａ
ＳＫ
デパケンＲ
ラミクタール
ないか
触っ
肝性脳症
貼っ
見込み
男
休憩
形成術
外食
##今
転倒注意
ボトル
すぎる
ＶｔＭ
左胸水
知っ
ｎｏｒａｌｅ
滴下
眠剤使用
##欠
上手
カード
##ｉｒ
##腰
歩容安定
塗っ
明るく
アナ
眼圧
##右側
ｉＣａ
送る
ＷＩ
興味
前立腺肥大
チラージン
つもり
シングレア
常用
ＮＴ
Ｍｂ
ボタン
ＯＭＩ
何回
パソコン
炎症反応高値
通過
赤い
##背部
ディプリバン
復帰
原発性
エナラプリル
先日
##平成２
##気管
ｍＦＯＬＦＯＸ
３７
ヒルドイドローション
発声
業
温度
作り
##事
ＬＤＨ
課題
本朝
褥瘡発生
咽頭発赤
Ｂｅｖ
付ける
##最
鉗子
ｓｅ
点状
ｅｘｔ
##げ
##薄
誰
メバロチン
会い
##現
３点
限局
##ｕｌ
洞調律
Ｒｔ
ＦＤＧ
どこか
ｆｅｍｏｒａｌ
広がっ
##グラ
卵巣腫瘍
##位
立上がり
相変わらず
胎盤
##大腿
ないし
##せ
ｔｕｂ１
鉄
言語
決まり
ティッシュ
ＳＵＶｍａｘ
肝移植
自発的
とこ
８４日
ｃｏｎｔｒｏｌ
ＷＰ
Ｏｕｔ
スポーツ
手帳
皮膚病変
##経
泣い
##閉
解
確立
色素沈着
保育士
脱臼
骨頭
自費
##胆汁
トラクリア
##対
視力低下
##切
生後
塞栓症
便器
家事
脊髄
小さな
##頸
鼠径
##炎
転床
困る
イメンド
ＰＴＧＢＤ
##点
症候性
##石
ぶ
口渇感
みぎ
２点
##口腔
歯肉
ナトリウム
測っ
出さ
##易
体勢
肺音
月下旬
硬膜下
##腎機能
##ｅｘ
ＣＤｔｏｘｉｎ
##アク
##悪
##マン
##補
阻害
生き
展開
転移性
ＬＶＡ
##ＰＯ
シナール
計測
##液
リーナレン
アシドーシス
##ＰＴ
Ｓａｔ
文書
レーザー
ストレッチ
##横
把持
ｇｅ
動脈硬化症
在住
まら
筆談
ＭＦ
塊
塩分制限
ロック
遊離
ゲル
水溶性
##大学
ｎｏｒｍａｌｖｅｓｉｃｕｌａｒｓｏｕｎｄ
やつ
げる
ＣＸｐ
力低下
多発肺転移
脳血管疾患
ナウゼリン
フェ
代替
牽引
ーン
##傷
デ
分岐
脳転移
呼びかけ
体験
性疾患
便潜血陽性
スター
##発赤
ＨＳ
ＡＰＳ
Ｃｃｒ
４年
後ろ
相互作用
ＶＧ
電解質
腎硬化症
Ｉａ
鼾
ＳＴ低下
##ｌａｎ
たん
はかる
来し
##眼球
ＡＫＩ
ビクトーザ
ダグラス窩
ベンザリン
幹部
候補
##ふらつき
音楽
##菌
オプソ
言
微弱
筋力強化
発作なし
褐色
飲み込み
症状悪化
曰く
飲める
##発作
ｉｎｄｅｘ
額
自然に
以遠
よろしい
辛く
髪
ヵ月
##線
眠り
君
後頭部
ション
##ｏｐ
ぐ
##市
久しぶり
員
光
ドグマチール
Ｂｔ
変調
残渣
スタチン
##自然
##淡
ビ
##再発
狭小化
肉腫
近傍
ａｇｅ
ＲＯＭｅｘ
ＮａＣｌ
ＧＰＲ
甲状腺機能
平坦軟
##異
洗面台
心筋生検
##未
に関し
##ハイ
Ｈｅａｒｔ
##ｏｌ
あて
##ｋｅ
ローション
##代
小指
ぶり
##新規
##僧帽弁
切迫早産
態度
##ｇｕ
ング
のど
硬
ｍｉａ
死に
起立
メイアクト
##覚
肝内胆管
ひどい
がる
迎える
しょうが
体調不良
更
ノボリン
可及的
心電図異常
転倒歴
水腎症
生活リズム
ｌｕｎｇｆｉｅｌｄ
##語
脱
上の
##流
チェックリスト
シェーグレン
義歯
叩打痛なし
##滑
翌朝
不快感
その間
別途
難治性
刺入部痛
ＶＲＣＺ
経時
深夜
ａｔｒｏｐｈｙ
単独
合う
##受
タクロリムス
痛みあり
メガホン
##アル
初発
ファモチジン
叩打痛
完
バスカテ
##コー
びっくり
ＤＯＣ
アモバン
下肢痛
ＢＢ
伸び
ムコソルバン
##摂取
休日
ｍｇｄｉｖ
##遠
##Ａｄ
##喀痰
連れ
正色素性
凍結
ＮＰＯ
努力
なんとなく
憩室
##尾
リスト
##腹膜
中枢
プロブレム
ｓｓ
感情
腟
排尿障害
受け答え
比し
##連
離開
浮遊
産
布
瘢痕
腎前性
##プリ
ッ
だるさ
あがっ
残薬
胃内
における
頸椎
何らかの
Ｋｇ
濃縮尿
エアリーク
２０００年
##不眠時
ｖｏｌｕｍｅ
離れ
ＩＯＬ
バイタル変動
##ｔｙ
オパルモン
頻回
記
Ａｒａ
##頭部
易怒性
殆ど
心嚢
##ゲ
膿胸
らしい
Ｍｅｔａ
顔面神経
肝膿瘍
破水
ｏｍａ
Ｃａｌｌ
Ｖｉｔａｌｓｔａｂｌｅ
お金
##熱
ｓｉｎｕｓ
激しい
##血液
下降
環境調整
届き
親
広範
上がら
ビン
手続き
こだわり
##正
手配
##ワ
ＰｒｅＡｌｂ
ＢＥ
とおり
ｄｓ
メイラックス
##下顎
双極性障害
おにぎり
従命
##配
##ライ
##ｒａｎ
破裂
心拍数
付い
気管支
委員
##癒着
塞栓術
##ｌａｒ
女
捨て
ＬＡ
下痢なし
崩れ
パック
エリキュース
##ｒｙ
##ａｔ
##ザ
唇
腱
ｐＣＯ
受容
抑うつ気分
##相
風
３度
見送り
##拡張
相手
７７日
##満
降り
開大
##視
くださる
果物
手持ち
身体的
##レン
筋肉
案内
##不穏
##４０
素
腹部圧痛
シバリング
白血球減少
出せ
昼夜逆転
ｔｕｒｇｏｒ
ルール
##尿管
ラ音
ト食
射
蛋白尿
入所
食道静脈瘤
ゴム
耳鳴
下方
##調
ユリーフ
足背動脈触知
コニール
漏出
麻痺なし
##立位
##右腎
##立ち
Ｘｐ
屋
血糖降下薬
昨年
##胞
カラー
大部屋
深く
##ステロイド
##誤
摩擦
殻確認
伺っ
結婚
意
ＳＳｃ
次第に
悪化傾向
ｄＢ
自発痛
おかず
ＰＭＩ
落とし
蠕動
情報共有
キ
##左側
低形成
タッチ
##反
##光
ひだり
着脱
##排
ノイトロジン
呼気
アイデスワッブ
ネスプ
希釈
退職
骨突出
硬化
変わらず
付き添う
ひける
##フラ
##ギ
月上旬
出かけ
##Ａｌ
ｒｉｓｋ
ＩＰＦ
扱い
冠
嬉しい
ｒｙ
今年
左肺上葉
オピオイド
承諾
座
赤ちゃん
頚動脈
##松
日々
起こさ
##刺入部
急性膵炎
分かる
中葉
食物
##ｄｌ
７０歳
均一
低Ａｌｂ血症
肺水腫
表現
##めまい
##ｅｒｉ
##右眼
斑
６年
##ＡＢ
痂皮化
鼠
ミニ
ｄｅ
行ける
ｍａｘ
左前
昨夕
理
由来
懸濁性点眼
プレセデックス
魚
ＩＨＤ
##ｌｕ
ベルソムラ
皮膚硬化
ｈｉｇｈ
超える
毎週
軽い
ケアマネ
硝子体
ネオシネジン
遠慮
ＬＫ
##大動脈弁
##応
##肛門
回答
孫
##傍
基準値
腹部大動脈瘤
##浅
##黄
心内膜炎
申し送り
アリセプト
膵頭部癌
##嚢
抗悪性腫瘍剤加算
##ｈｉｇｈ
ミス
##褥瘡
##ｄｅｎ
ＥＴＰ
蕁麻疹
うとうと
##表
座る
＠
意識レベル低下
ｔａ
ｓｅｔ
##時々
自己判断
抱っこ
化膿性
ＣＭ
ＩＰＭＮ
強化母乳
整腸剤
##産
任せ
ＥＲ
明け方
ｒｏ
休む
高熱
休め
症状緩和
カルボシステイン
８年
体制
痰がらみ
##歩行時
６５歳
ペルジピン
ＡＦＬ
打撲
いったん
小学校
##球
トランサミン
出産
粘稠痰
胃炎
送り
ｃａｌ
２００１年
知り
ＣＹ
下さる
Ｂ５
グリコアルブミン
創部クリア
Ｇ７
ｂａｓｅ
ｎｐ
病室内歩行
ビタミン
溶血影
シングル
矯正
頷き
ギャッジアップ
##温
初め
サプリメント
##づ
##マイ
悪かっ
ＥＶＬ
疼痛持続
にあたって
透過性
##カテ
確か
##所
##ｐｏｓｔ
アミティーザ
##Ｃｏｎ
##１９４
ｃｏｎｓｕｌｔ
付着程度
ブスコパン
ＡＬＳ
点眼薬
空け
##ＩＰ
温存
ジェントレット
ミルキング
##尿道
６割
ああ
標本
にとって
上皮化
代わり
##裂
両方
不安感
バスタオル
ｍｇＩＶ
微増
明瞭
話しかけ
肺気腫
明朝
##ｎｄ
２００６
下げる
歩か
たま
##足趾
新聞
見受け
##進
わる
控える
ご多忙
##ｒｕ
##Ｌｉ
##ｘｉ
しかっ
師長
腺
大事
想定
##オー
輪
##角
血流低下
心嚢水
フィリング
上方
拒否的
ハルナール
##用
##形成
ケイツー
靭帯
ｆｌｅｘ
見当識障害
起こる
肺音清
##腫脹
通し
ＳＯＬ
早産
ふらつき著明
可動性
ある時
緩下剤
リンパ
##難
##端
骨髄腫
##頼
生体
震え
ｃａｒｃｉｎｏｍａ
いって
ｏｐｅｓｃａｒ
両側胸水
##Ｄｉ
痔
脱毛
ｐＯ
##類
主要
ｄｒｕｇ
過
サワシリン
バックス
Ｌｕｎｇ
ダラシン
##風
##早期
ぼーっ
血圧コントロール
##１４
潰瘍性大
格
ＩＩ型
すこし
２日間
ｔｉｓ
去
食事摂取状況
室内歩行
７年
見直し
図
皮疹なし
便性状
粘稠度
社会
こみ
得て
ｓｙｎｄｒｏｍｅ
精巣
らい
疼痛状況
分野
家庭
抗核抗体
##サイ
ｄｒｉｐ
助
夜間せん妄
ケナログ
目立ち
ミオコール
##Ｌｅ
##地
##ｈｙｐｅｒ
##脊椎
##添
立ち
股関節症
自己中断
##ｐｅｒｉ
目途
マーク
ベルト
##波
炎症性
責
##陰
間接
低Ｎａ
Ｓｔａｇｅ
３１日
換え
短い
ウルソデオキシコール酸
Ｃｙｐｈｅｒ
貧血症状
モ
睡眠時間
１０年
問いかけ
引き継ぎ
低位
##混
にくさ
平気
##ジェ
遊ん
ｍｐ
ＣｘＬ
胸膜
耳介
アルブミナー
ｌｅａｋ
##引
１２０枚
１歳
感染源
##伝
筋電図
意識状態
きっかけ
呼び
かなっ
##集
吸っ
スピリーバ
呼
脊柱管狭窄症
夏
##から
和
兆候
ｄａｔａ
キーパーソン
末梢血
ソラナックス
ゾン
多発リンパ節
ナート
願い
スピーチ
##ｂｐｍ
午睡
パ
ＫＣＬ
Ａｂｄｏｍｅｎ
現実
すすま
##Ｓｅ
ｅｎｔ
##飲
味覚障害
ＩＰＡ
使え
５日間
巻き
シール
到達
##隔
水飲
７０本
##離
##在
腸瘻造設
胃液
食べ物
当面
##ｖｉｔａｌ
班
左鼠径
おかしい
不随意運動
##ｋｇ
抑うつ
深部静脈血栓症
実母
##呼吸苦
子宮頸癌
バルブ
撤去
ＳＭ
ｔｅｒ
糜爛
パス逸脱
泥状
右前
あきらか
アイスノン
##冠動脈
##ペン
遅い
当番
カ月
模様
##１１
肉眼的血尿
ケフラール
##減
注意事項
胸部痛
##整
居
##器
要求
ＳＢ
心雑音
トン
座り
##Ｌａ
変性
電極
旅行
て入
##左眼
深夜帯
進み
なくなる
重い
ＶＰＡ
滲出性
##ｍＬ
謝罪
##決
右優位
##引っ
対象
かり
##上皮
ＡＮＡ
ＦＬ
ＲＮＡ
ボール
２割
就労
##アイ
芽球
メール
ＴＥＬ
##せん妄
浅く
##ｍｅｎ
持つ
ｆｒｅｅ
##バー
３か月
につきまして
##ｓｐｅ
開存
造影効果
##角膜
創部発赤
就寝時
正しく
著しい
ＤＢ
タバコ
担当者
##意識レベル
ケース
##ｑｕ
食間
##聴
ラー
脳梗塞後
##差し
オノアクト
乗っ
４度
進む
クリル
##血性
胎児
身体症状
合致
ｎｏｔａｎｅｍｉｃ
シリンジ
関わり
##睡眠
ｄｙｓｅｓｔｈｅｓｉａ
##円
糖衣錠
人工血管
膳
慢性心房細動
##動作
##義
高さ
ＬＴ
体液
##形
ナノパスニードル
直す
難渋
胸水穿刺
要望
伴わ
血管腫
鑑賞
アドバイス
代謝性アシドーシス
##偏
手術痕
キロ
陳述
絵
##等
赤
Ｖ３
被害
促進
##ｍｂ
ＣＭＺ
##防
向い
皮膚観察
十二指腸潰瘍
カルデナリン
リザーバー
##バン
本来
メピレックスボーダー
##ウロ
ゲーベン
休まれ
##活動
アレビアチン
正答
様々
ロセフィン
熟眠感
##左室
##ｓｐｉ
スコア
##Ｍｅ
副作用出現
フロー
関わら
プ
##児
整復
足首
除菌
あげる
腎瘻
パキシル
ジェイゾロフト
手技問題なし
##反応
ｔｏｎｇｕｅ
いびき
肺ケア
##生活
弾
反跳痛なし
##ざ
後腹膜
ピーク
視算法
##Ｎｅ
カップ
膨満
ｃＣａ
歩行状態安定
昼食前血糖
ベナン
死
##家
##腹腔内
減圧
東
ＪＣＳＩＩ
##爪
成績
尿潜血
落ち込ん
２週
肋
誘因
して
数値
Ｍｙｅｌｏ
オリ
ｔｕｂ２
短期
モード
##臀部
胎
細胞浸潤
対症療法
ダブル
##延
時間帯
始まる
有する
液体
言える
ビリルビン
##ＩＩＩ
通過障害
##予
ｅｒ
運び
##知
##ｄｙ
疹
助言
ＡＢＰ
たっ
洗面
悪さ
甲状腺腫大
基づき
貧血進行
穴
第一鉄
状態不変
ＥＧＤ
ＩＤＲ
４０日
そのほか
含ま
##ｃｏｌ
##精
浴室
##縦隔
Ｎｅｃｋ
乾性咳嗽
ＬＭＴ
暑い
##ｆａ
##イレウス
グリセオール
羊水
ｍａ
心拍
倦怠感強く
ｍｇｄｉｖｑ
##１９７
##ｅｎｏ
表皮
アウト
個人
抜く
くっ
後出血
ＰＳＶＴ
軟骨
##ＣＬ
吐血
食生活
壊疽
##口唇
陰性Ｔ波
カイトリル
粘液
はね
芍薬甘草湯
作
ラジオ
頭頂葉
給食
ロール
かかりつけ医
##工
##ＲＶ
ＶＩＴＡＬＳＩＧＮＳ
グリップ
短く
##ブロ
Ｔｃｈａｎｇｅ
##節
最低
ＡＡＡ
終わる
に際して
果
帰れ
赤く
まぁ
##ｎｏｒｍａｌ
飴
##意
重篤
偏位
Ｄｄ
持
ｍｅｔａ
イメンドカプセル
マー
嫁
##軟骨
##機能
余裕
ＥＥＧ
帰れる
##骨盤内
跡
##味
語
##ヤ
ード
分布
打つ
消
採卵
向かっ
##パン
終え
回盲部
別に
ズレ
口角
##ｔｅｎ
糖尿病内科
どんどん
ガード
日中覚醒
Ｐａｆ
自覚的
##シル
幅
##マー
血管内脱水
心電図変化
静脈瘤
電車
##特
##茶色
可動域
##ウィ
プリン
胸骨
##張
伝い
監視
##Ｎａ
##嚥下
自己喀出
０万
胸椎
血糖上昇
おは
##食後
大切
ＩＩｃ
わり
##貯留
周期
両側肺
##クラ
すごさ
参加者
緊急手術
##ＤＬ
アレジオン
スロー
通
採
蓄尿
黄
ｆｏｏｄ
すい
##ｃｅｌｌ
洗っ
##眼瞼
##ｎａ
呼ば
昼夜
裂
##ｐｅｒ
グループ
苦悶様
コンスタント
流産
##転移
浸出なし
アーガメイト
もれ
##ｇｒａ
ペットボトル
ＶＥ
関節可動域練習
ＡＭＩ
ｒａｄｉａｔｉｏｎ
##副腎
のみで
旦那
答える
ネバナック
##速
ｐｕｐｉｌｓ
Ｖ６
終始
心不全症状
ロラゼパム
下着
近日中
##々
Ｑ２
##酸
救急車
冴え
硬化症
ＤＩＰ
##親
パニック
試行
スポンジ
採尿
立ち上がる
ＮＹ
満たし
ＥＦＷ
すすん
##Ｄｅ
##計
##道
セファゾリン
ａｓｃｉｔｅｓ
ｍｉｎＢＰ
かし
むくみ
門脈
たまっ
##御
ｂｐｍＢＰ
緑
ちょうど
イレウス症状
副腎不全
１１７
起き上がっ
産後
##キャ
脇漏れ
触覚
毛
自律哺乳
胸膜炎
難し
ＤＥＸ
アテレック
ヶ所
誰か
周術期管理
##短
歩行不安定
重度
幻視
足浴
##西
##居
扁平上皮癌
ループス
アンプラーグ
##独
陰部洗浄
９度
##頚
ｍａｂ
Ｃｏｍ
歴なし
ＲＮＰ
##ｈｏ
ドロン
ｐｒｏｇｒａｍ
##排尿
Ｓｅｎｓｏｒｙ
##除
付添い
合わせる
過食
ロナセン
モニタ
##ＴＥ
黒色
聞こえる
２年前
発熱持続
ｓｍｏｋｅｒ
##ｙｐ
肺門
プロスタンディン
##ｔｏｎ
ｓｍｏｋｉｎｇ
問診
沐浴
##ｂａ
変える
アピドラ
##包
まとまっ
デュロテップパッチ
弁膜症
幸甚
##Ｃａ
県
２枚
##コアグラ
透過性低下
つながっ
３年前
ｃｔ
##黒
アミノレバン
##従
##ｍｙｏ
ばっかり
２型ＤＭ
専門
いまいち
##弱
##起
機器
整形
脳神経
認定
##ース
内血栓
##排泄
かゆい
##ｋｃａｌ
冷感なし
係
下し
##トレ
性変化
ｍｇｄａｙ
##破
ラクテック
ＡＣＳ
舌苔
ｒｅｇｕｌａｒ
必
ｇｅｎｅｒａｌｇｏｏｄ
短
ｗａｒｆａｒｉｎ
ヘッド
身の回り
遺残
排便後
問題行動
##ッド
循環動態変動
ＧＥＲＤ
##極
ガ
遮断
ＧＩＲ
がら
職
脳炎
まれ
ｒｏｕｎｄ
##心臓
閉じ
ＦＡＸ
ｎａｓａｌ
喉頭癌
ポケット
関わっ
ＰＷ
##基
起こっ
米飯
おかけ
動ける
研究
ｄｅｆｅｎｓｅ
ＤＬＢ
混入
##肩
怖く
右肘
##沈
##Ｓｐ
##完全
##上肢
漏れなし
ｐｏｓｓｉｂｌｅ
お菓子
増し
ｃｋ
##サル
４点
大脳
##飲水
止血確認
返し
##ｔｒｅ
##設
索
出血少量
２４時
助手
体操
好酸球
４割
はずし
ビソルボン
一口
後再発
リン酸
##グリ
ＳＩ
アンギオ
痂皮
立位時
０度
##外側
貯留なし
胸壁
自動運動
##ｉｄ
潰瘍部
##キシ
とら
##Ｃｏ
産科
ｅｘ
欠損症
##ドレーン
卵巣嚢腫
胸腔穿刺
##会
##関連
そば
増減
##区
運動障害
どうにか
鈍痛
##貧血
##瞳孔
内シャント
##門脈
日時
ｎｏｎ
心機能低下
限定
##Ｓ状結腸
鮮血
##スタ
頻呼吸
ミドリン
汁
未着
づつ
止まら
デュロテップ
ｆｏｌｌｏｗｕｐ
たかっ
動静脈
塗
##状態
胆管癌
ＣＯ２貯留
胃部不快
やく
##藤
上行結腸癌
うっ血
##収
どうも
ｕｍ
ガンマナイフ
完了
ネット
度々
デュオ
##ぬ
専従
発汗著明
腸腰筋
握力
夢
ウトウト
増強効果
欠乏
保てる
ません
##ラク
##別
限界
帰ら
髄
ｔｏｕｃｈ
バ
脱水傾向
##左下腿
禁忌
歩行実施
##ｃｍ
なさ
意欲的
膀胱鏡
##タイ
##切り
##昼
腹部平坦軟
段差
心室
##ＣＡ
ｏｎｅ
腎摘
円
##右大腿骨
##しゃ
Ｄダイマー
昼過ぎ
ＷＢ
３５歳
至る
##突
##クリ
医長
酒
否
肛門痛
バラクルード
セフェピム
甲状腺機能低下
##名
##胎児
じっと
悪性所見
自転車
##留
##月経
##チン
##支
テイコプラニン
##愛
ＧＭ
後部
隆起
移植登録
甘い
母体
Ｂａｂｉｎｓｋｉ
抑肝散
自傷
狭窄音
巣
##吸収
再確認
##脱水
傍大動脈
ぐっすり
昇圧症状なし
ＬＭＰ
修復
グラルギン
Ｏｆｆ
境界
赤血球
同伴
虚脱
##ｍｏｄｅｒａｔｅ
##ｍｍＨｇ
タクシー
あら
達し
調子悪
苦痛緩和
スッキリ
時疼痛
医療機関
むせこみ
##余
かく
##ｒｏｎ
ギャッチアップ
過多
被
与
同胞
##腹壁
ｉｔ
Ｔ１ｂ
５５歳
分間
##一部
肝不全
返血
##聞
##エン
膵上
浅い
出来れ
食べれない
体表面積
おおむね
リスク状態
プロ
上限
居住
##送
ＧＩ
ｔａｌ
動脈触知
##教
分化
遊び
交え
##ｄｉｓ
Ａｉｒ
カリメート
高Ｃａ血症
手首
ｌｙｍｐｈｏｍａ
ＲＣ
##ｃｔｉｏｎ
病識
リザーバーマスク
肺動脈
ゆく
減り
準
付き添っ
シスプラチン
##頭痛
手伝っ
脳腫瘍
尿量低下
Ｇｙ
泣き
開
ｖａｒｉ
勝手
著しく
奥さん
がり
ポジショニング
完成
##暗
##もう
バイエッタ
おっぱい
##図
クッション
葉酸
Ｗｔ
もらお
##ｐａｌ
腰部痛
ＥＧＦＲ
ザ
ｐｕｌｓｅ
３人
ＶＮＲ
##微
体重計
噴霧
緑膿菌
##ｐａｒ
摘除
##線維
ノボラピット
低出生体重児
痛風
お水
##ｄｅｒ
剥がし
##書
##清
##作
##胸膜
男児
##膿瘍
免疫抑制
多発骨転移
嘔吐後
##精神的
##積
##Ｆｉ
重積
腹膜透析
##ｏｆｔｈｅ
増生
##心筋
真皮
備え
レジ
##今年
かぶれ
メルカゾール
アドシルカ
広がり
ｔｈ
##来
死ん
ｓｍｏｏｔｈ
ｆｅｖｅｒ
##疹
##ｏｍａ
ｔｒｙ
脾臓
##理解
容
##ジャ
睡眠障害
虫
忙しい
乱れ
７回
ｔａｔｉｏｎ
腸閉塞
肺塞栓
##ｓｅｎ
臓器
##ｓｔｕ
胃癌術
##フレ
都
保
高かっ
ナー
##住
##社会
レペタン
病変なし
溢水
##要
胸部不快感
##Ｖｉｔａｌ
##容
ｖｅｒ
箸
広範囲
##性状
回避
##電
卒業
失調
##皮疹
##科
ラス
精神神経科
ジ
##硬膜
感覚低下
ジゴキシン
##排液
おさまり
ＬＩＰ
嫌い
子ども
##飛
イムラン
反復
アルツハイマー型
フェロ
前立腺生検
##ｔｉｎ
絆創膏
つながる
１点
創部状態
ｒｅｓｔｕｄｙＣＡＧ
書き
直下
テネリア
ｃｔｉｏｎ
齲歯
ＰｒｏｂｌｅｍＬｉｓｔ
接し
バリキサ
##試
順
未だ
##ショ
面倒
そうだ
ｎｅｇａｔｉｖｅ
##公
見通し
浴び
ｈｅｐａｒｉｎ
ｖｅ
ＲＦＳ
##昨年
##ｏｕｓ
尚
ＸＩＩ
早急
受付
結果次第
奏功
##微小
食事制限
治っ
雑音聴取
られれ
ニトロール
６７歳
##育
話し合っ
##胆道
挨拶
##ＰＡ
白苔
##帯
ｓｔａｇｅＩＶＡ
歩行器歩行
##腹部症状
##セル
筋性防御なし
蘇生
##素
疼痛強い
きつい
心嚢液
抗精神病
実測
ｃｏｎｊ
以来
入口
##苦
ＦＯＬＦＯＸ
胴
ッチ
味噌汁
集団
##糖尿病
Ｃ型肝炎
##浸潤
腫瘍細胞
神経麻痺
再留置
脱力感
診療所
６８歳
気管支炎
##嘔気
１分
##ｕｐ
中部
頭痛時
ｊａｕｎｄｉｃｅ
手関節
蠕動音
Ａｓｙｎｅｒｇｙ
洗
ｐＴ３
ＧＯ
後遺症
大泉門平坦
１割
グラデュメット
かえ
過度
##付
##正中
一週間
##副作用
ＥＳＷＬ
性病
比重
何で
ｆｒｅｅａｉｒ
声量
低酸素
デノシン
##座
ステリ
##アルコール
転出
##左大腿骨
ＳＳＳ
ｇｅｎｅｒａｌ
##巻き
##知覚
ＯＭＥ
電
耐糖能異常
構わ
残尿測定
兄弟
部疼痛
##体動
既往なし
こころ
洗濯
熟睡
２回目
費
##ｒｏｗ
差し替え
局所再発
ムセ込
花粉症
住ん
##うつ
##点滴
抜ける
血漿交換
食塩
アンペック
図れる
染
##医
粘膜障害
空き
メンバー
祖父
バナナ
少なかっ
達
##ｅｎｅ
##ップ
自主的
インスピロン
お世話になりました
頻繁
##キュ
##ぽ
##乏
高信号域
トール
ｓｏｆｔａｎｄｆｌａｔ
##メト
悪性高熱症
身体所見上
減速
炎症データ
プラーク
##水様便
##岡
ざる
分割
説得
##３０
ＡＢＩ
振動
##表在
バン
ニン
##後腹膜
テーパー
腫瘍内科
粗大
頸部郭清
口側
##ガス
知らせる
ワイヤー
痰絡み
日内
陰茎
の症状
頭重感
Ｓｉｇｎａｔｕｒｅ
塩化ナトリウム
ｉｎｔ
##ｗｉ
怒
##止
臨床症状
溶血
青
さっ
崎
##ング
連絡先
晩
##グル
Ｐｈ
ペンタサ
ｃａｎｅ
恐怖
発育
##乗り
##染
くなる
ｐｏｓｔ
##腫瘤
抱き
自走
松
ノ
##声
茎
##茶
コントロールされている
トレーニング
今夜
沈着
硬め
##ａｉｒ
促迫
##ｓｅｐ
##毛
##ｂｌｅ
精神病
ａｐｎｅａ
##インスリン
結節性
Ｒ１２
##注意
膿性
システム
ｓｉａ
##メン
乳首
腋窩リンパ節
好
##それ
Ｋｃａｌ
Ｂ型肝炎
線維化
##ｖａｒｉ
ＡＴＳ
思考
##ｃｏｒ
引き継ぐ
##足関節
##保
プレート
##頭蓋
##適
胸腹水
##ｏｕ
年生
混在
こういう
##診
不規則
ｌｕｎｇｆｉｅｌｄｃｌｅａｒ
異常感覚
４５歳
うれしい
脱落
影
##脚
速
自然妊娠
案
ｔｉｎｉｂ
ｍＥＣＴ
脳動脈瘤
Ｆ４
網状影
現象
レティナ
Ｔａｃ
あい
出口
止める
テンプレート
##ｆｌａ
蓄積
異常陰影
ブイフェンド
##腹満
支える
クリティカルパス
都立
無効
Ｐｌａｎ
７５歳
ＢＢＤ
濡れ
駆動
つかまり
原発性肺
ＭＲＣ
##浮
靱帯
納豆
##ｔｙｐｅ
##ｕｒ
カニュレ
話して
##荒
レキソタン
づらく
続
心尖
アンカロン
##業
季
鼓膜
排尿後
回目
腹帯
疼痛改善
眠れません
辻褄
Ｈｅａｄ
##圧迫
ｏｌ
メピレックス
癒合
メネシット
守る
##１９５
ｄｒａｉｎ
焼酎
ｏｂｅｓｉｔｙ
し尿
胆嚢結石
グリミクロン
ージ
体外ルート
アドナ
##Ｎｏ
悪性疾患
文字
##色
圧痕
意志
なか
##食べ
##頸椎
多呼吸
##ｒｔ
##真
##Ｄｏ
はいる
原性
メイロン
ステージ
コーテフ
禁酒
##切迫
じゃなくて
熱傷
店
##ａｒｙ
染み
##話し
ＮＡ
##ＦＥ
だいたい
##世
##ａｌｌ
置き換え
実
ポララミン
##ｌｔ
##奇
文
失語
送っ
引き継い
筋生検
うけ
##腱
##医療
腸間膜
かん
スローケー
##天
ティ
耐性
かれ
##パー
眼鏡
##テープ
Ｔ２ＤＭ
##路
越え
適
立ち上がっ
##割
ＦＯＬＦＩＲＩ
但し
切迫症状
##優
談
##水疱
通い
分の
介護タクシー
づけ
取ら
つながら
過信
橋本病
##苦し
産生
ＭＢＤ
##右室
##ｃｌｅ
平日
２階
大幅
##陽
切り替える
##乗
シュアポスト
##組織
自発呼吸
６６歳
随時
##誘
むら
パーキンソン病
詰まっ
７２歳
電気メス
機嫌良好
##臍帯
##掴
自己免疫性
自己管理可能
半球
振り返り
##橋
ＩＣＣ
ぶつけ
ドルナー
微量
適用
##助
室外
バンド
心筋虚血
トリクロ
##能
##Ｔｏ
##右下腿
##すり
睡眠確保
鼻水
##尿路
グラフィー
交し
肌色
##追
ビタメジン
四肢麻痺
##１９８
スープ
将来
右乳癌
眼瞼下垂
就職
肋間
６４歳
柔らかく
しんどい
##声帯
ｂＮ
##うな
##Ｗｅ
ｒｅｃｏｍｍｅｎｄ
ＤＷＢＣ
制止
##ｌａｐ
申し訳ない
タン
##好中球
ふらふら
セカンドオピニオン
トレックス
##散
鎖
##扁桃
トラ
グラセプター
ｌａｓｉｘ
回転
推定
##乱
血小板輸血
##体調
オーダ
髄膜腫
弾性ストッキング着用
知覚鈍麻
コード
実質
１９９９年
衝動
##結
頷く
努力呼吸
だが
感軽度
暗い
##悲
日立
ＯＭ
筋無力症
褥瘡予防
腸蠕動音聴取
大動脈瘤
治る
顔色
皮下血腫
左肘
ｓｐ
アクテムラ
食事摂取不良
ＷＯＣ
神経痛
したら
外傷性
動脈狭窄
肝腎
意義
##ＣＤ
進学
１９９８年
ソロ
ｄｅｒ
##アレルギー
転落のリスク
心臓カテーテル検査
寄り
ｐＴ１
不妊
バー
重い感じ
##蛋白
ｉｓｏｃｏｒｉｃ
閉創
##遅
冷汗
許容範囲
##腫
ＡＸＲ
皮質
##ｅｒｅ
##麻痺
##存
ｎｏｍａ
焦燥感
ＬＹ
ｒａｌｅ
##渡
##ｏｖｅｒ
足踏み
ＯＳＭ
７３歳
脳血流
受けて
##Ｂｅ
ビスケット
マイシン
Ｙガーゼ
鳴る
説
間欠的
##ネオ
マグコロール
肺結核
##Ｅｎ
意欲低下
##降
暇
##ｍｅｄｉ
##放射線
肝腎機能確認済み
モーラスパップ
##フロ
排液
##ｔｅｄ
限ら
子宮内膜
混じっ
ｒｉｇｉｄｉｔｙ
左前頭葉
中指
##ｈｙ
どういう
##腕
##宮
痔核
ハーフ
左腕
ｐｏｓｉｔｉｏｎ
断面
ｆａｓｃｉｃｕｌａｔｉｏｎ
陥没呼吸
６２歳
注意深く
６０分
出発
線維
##ｊ
インクレミン
探す
掻い
デバイス
横行結腸癌
##尿意
アレルギー疾患
申し送っ
側面
##左上
前傾姿勢
##抜
血管痛
算
話題
##ｓｕｂ
##受け
正しい
##凝
##仰
軸
頭頂
##ぱ
アリ
##くる
感染対策
ザイザル
##Ｍａ
ばっ
イソジン
日医工
細かい
大動脈解離
脂肪織
こん
開通
女児
ｂｌｏｃｋ
ファン
ＩＴＰ
立つ
再手術
##普通
##粘
不安強い
クリップ
コン
突起
##セレ
##厚
ドール
幹
##ＦＬ
動態
バリアンス発生
ログ
テプレノン
お父さん
デイケア
鼓音
はなし
##ワー
##ＥＢ
ｄｅｃ
副菜
ボックス
ＰＨＴ
嚥下評価
６９歳
念頭
タイ
伸ばし
##久
膵体
心電図モニター
転移巣
##へ
徒手吸引
運動器
挙がる
##ｆｏ
日直
##ａｒｍ
ａｒ
とにかく
##三尖弁
乾癬
夜間睡眠
病棟内歩行
入れ歯
##協
ニール
補
オ
##イド
後症状
過敏
異常症
##集積
##Ｒｏ
##ｃａｒ
##水分
たべ
上半身
リスク高い
##ｍａｎ
皮膚発赤
ＡＺＭ
最低限
##ｗａ
ダー
##腎症
流
９年
洗う
##ＰＲ
初日
投
脳血管
##歩
ＳＮ
##ｃｌｅａｒ
進行胃癌
##ｖｅｎ
デブリードマン
いいね
拒薬
フィブラストスプレー
残す
##浴
ＴＩＡ
賜り
##空
ニトロダーム
ワンデュロパッチ
萎縮性
当たっ
ｒｅｌａｐｓｅ
ｂｌｅ
初旬
##リス
ａｔｉｏｎ
Ｉｂ
慢性膵炎
桁
駄目
##急
##ｂｒａ
脾腫
鎮痛剤希望
モニラック
業務
血球回復
授業
はかっ
年明け
ｂｌａｓｔ
もち
眼球運動
##ｅｌ
##仮
ＬＰ
##人工
宅
助け
##元
胃薬
##飲み
ｐａｔｈｙ
##記
##動き
したこと
抗酸菌症
低Ｋ
##抜歯
掃除
ウム
ｉｐ
保っ
##移
沈渣
ｍｉｘ
反跳痛
開い
##ａｍ
テノーミン
なぜ
##ｄｕｅｔｏ
動脈硬化
泡
米
軽度疼痛
##歩き
自己体動
##左大腿
ミノマイシン
##タン
守り
ｆｆ
摂れ
荷
フェノバール
##値
##ケア
咽
##塩
適応障害
皮弁色調
アブレーション
時痛
全麻
フェントステープ
さえ
越し
Ｄｆｏｌｌｏｗ
６３歳
免
夜間不眠
##ｖｉｔａｌｓｔａｂｌｅ
辛かっ
ＴＫ
ＴＰＯ
白い
##ント
偽薬
##ヨ
##ｗｅ
転ん
呼吸器症状
うどん
ベスト
##太
正常化
とい
年来
ムカムカ
##初
##ネー
##クレ
尋ね
##１９６
インスリン分泌
規準
自己導尿
ｗｏｕｎｄｃｌｅａｒ
##ｂａｃ
##腹痛
カンデサルタン
状態問題なし
ずらし
ＭＭＰ
あなた
ｎｏｇｏｉｔｅｒ
張る
##観
##シー
評価困難
ｎｏｒａｌｅｓ
##５０
両下肺
お迎え
低酸素血症
丸
収縮期雑音
おかしく
３つ
##便秘
ＥＰＳ
##ｓｔａｇｅＩＶ
命
##ｈｉ
Ｔ波
壊死組織
##むせ
##吉
流動
ウ
高まる
近所
フィルター
##ｃｈｏ
ベザトール
##ＰＩ
##局所
オン
粉
##拡
帯下
肺病変
##挙上
構い
因
きる
ケアマネージャー
グロブリン
っす
##ｄｏｓｅ
ネ
##右上肢
詳しく
##シャント
脱血管
感染巣
擦過傷
##国
##痙攣
わか
ぁ
暗く
届く
カルブロック
ダ
前庭
黒
行ない
##快
典型
を通して
コピー
##労作時
ポ
ＲＦＰ
尿管結石
母方
肥満症
ローリング
オンコビン
Ｖｆ
回っ
胃管挿入
##就
ポータブル
トランス
梨
きたす
不眠症
急性腎不全
ジゴシン
アルロイド
ＲＦＣＡ
送れる
傍大動脈リンパ節
いと
リクライニング
剥がす
##Ｍｉ
息苦しい
成立
ひとつ
ｋｃａｌＰ
##日本
##ｕｍ
いこ
##永
灌流
１２回
ｃｈａｎｇｅ
任
##セン
##近位
先方
骨密度
フルーツ
頻拍
##右下葉
##腔
同伴者
３６
来れ
ゲン
ストマ造設
含気
関わる
移送
イルベタン
からか
腸蠕動音微弱
走行
痰少量
深
眼軟膏
骨髄移植
おこなう
自殺企図
減る
長期臥床
##増
向かう
ドキドキ
拍動
なくっ
白内障手術
中盤
ａｃｃ
ＶＳ変動
ＢＰＤ
耐え
ＣＡＺ
失敗
##って
ＶＩＩ
満たさ
静脈炎
ＱＴ延長
右腕
駅
##ｑ
ｔｕｍｏｒ
骨切り
##瘢痕
こわばり
ＥＯＭ
小球性
遠慮なく
ッド
##トロ
##Ｈｅ
##陰部
ストッキング
中毒
空腹時血糖
フラット
リア
##含
ちょうだい
ひけ
##凝固
次に
届か
続か
ボー
##入れ
飲
４５日
要介護
##屈曲
ｕＬ
##ｓｔｏ
柄
切迫
カロリーメイト
##両上肢
微粒
足元
自殺
買い
審査
ｏｕｔｂａｌａｎｃｅ
フルコナゾール
##ＰＦ
##スピ
##右足
ＤＰ
脳血管障害
ランプ
パナルジン
大腿動脈
大球性貧血
##腰部
みえる
８０日
##インフルエンザ
##右大腿
ｈｄｉｖ
だるく
少な目
##感覚
右心不全
循環不全
##Ａｂ
まい
きい
嘔気持続
適時
着替え
溶解
##Ｌｏ
##嫌
調査
さらなる
メス
夜間頻尿
無くなっ
##網膜
糖質
潜
サイナスリズム
搾
##かか
ｍｍＨｇＳｐＯ
##復
ＶＢ
##ｖｏ
ＢＲ
変換
ラクナ
##腎盂
##病変
ダイアップ
づら
ＮＦ
フルマリン
##Ｃｙ
Ｔｂ
##労
ＧＡＤ
接種
キャップ
口腔ケア時
ふらつきなく歩行
がい
簡易
２か月
淡い
ベル
ｐＡｆ
##ｔｈｅｒ
腎盂
##ＩＮ
##境界
高度狭窄
##不全
総胆管
一気に
連休
ｄｙｓｍｅｔｒｉａ
２０年
様症状
随伴症状
甲状腺乳頭
７４歳
嚥下機能低下
##心室
受け止め
標準
持た
おっ
ねる
消え
手段
眠る
合併切除
当時
既感染
##古
従来
機能障害
皮切
保温
性器出血
ｂｌｏｃｋｅｒ
込ま
##左上肢
ッシング
##掻
不顕性
下半身
##クロー
##こと
点灯
ｌａｔｉｏｎ
##治
眼球
浸透圧
びまん
Ｃｈａｄｄｏｃｋ
性網膜症
視聴
##Ｆｅ
##倦怠感
##１９３
０年
##取
なにか
休ま
##ＣＯ
食塩水
オイル
腹圧
##ＶＳ
ｐｎｅｕｍｏｎｉａｅ
服薬コンプライアンス
##戻
本当は
ノート
低血糖時
充分
行動制限
似
ＰＳＷ
立位保持
非特異的
重曹
趣味
##心房
Ｓｐ
裂傷
アミオダロン
ナイフ
被覆
立ちくらみ
目薬
活用
ッと
##ｏｄ
救命
ポイント
ＳＳＴ
##低下
４人
対処法
一時退院
おねがい
物音
ハンプ
同時
チームカンファ
非定型
柔らかい
浅眠
##びまん性
##胸骨
届い
メタ
流入
##ポリ
##縮
腹部所見
直腸診
ＡＩＳ
交通
推測
##格
物忘れ
尊重
ａｓｔｈｍａ
ぎみ
##経過
ｓｔａｇｅＩＩＩ
ＯＳ
##卵
音聴取
##ｎｏｔ
##左右
##下部
ＥＣＭＯ
息ぎれ
悪
ラジ
自主
にあたり
時計
##掻痒感
尿量流出
##ｈａ
##運
##しびれ
##向
##負
##屈
せよ
ＮＩＢＰ
受持ち
##部分
むし
イトリゾール
巻い
##膨
腰背部痛
Ｂａｒｒｅ
デブリドマン
ｓｈ
雑談
尺度
止まり
##２４
縫合不全
プロトコール
突発性
全身管理
小結節
上し
スクワット
ニトロ
反映
胸やけ
ガム
スプレー
##壊死
##馬
##ｇｅｎ
ｉｎｔａｃｔ
食道裂孔
両側下腿浮腫
娩出
アレ
併発
##リンパ節
下肢疼痛
カプセル内視鏡
胸部違和感
ＩＮＨ
直腸癌術後
##少
##ＳＩ
変わりなし
##索
７１歳
当たり
##ｓｃ
抑える
肝嚢胞
ロコイド
メリット
盛り
エキス
プラザキサ
胆嚢癌
##逆
指標
##ｓｔａｇｅ
市販
身体損傷
ヨード
##握
##首
創部ガーゼ
全開
１０年前
##０
##飛び
離れる
氷
##神
明け
卓球
##バク
電子カルテ
１時間後
##ミン
わかん
##ベン
包帯保護
##ｆｌｕ
##右上
ｔａｃｈｙｃａｒｄｉａ
ｐｅ
トラック
ルフィジン
２５歳
##下痢便
ＰＢＣ
##いい
##文
２型
高齢者
ゾンデ
保健師
一定
携帯電話
##胎
ａｌｅｒｔ
##涙
ＩｔｏＲＣＡ
４本
メ
ーっと
さま
##失禁
カテ感染
モサプリド
気付い
##ｔｉｖｅ
ういい
来たし
##貴
述べ
吹き流し
ｃｏｌｏｒＹＥＬ
４２歳
炎症状
##ステント
ａｂｄ
送血管
眠ら
##持
補聴器
##胸郭
トロン
スピッツ
成人
##許
##ガン
ａｓｅ
ＡＣＬ
##アド
腸管ガス
状態確認
あがる
ピンク
手渡し
能障害
無けれ
進行癌
##蠕動
許容
##ｍｏｎ
貼る
##退
人間ドック
疣贅
腸蠕動音亢進
読み
ＳＶＣ
ＬＳ
ＤＴ
弯
##機
がない
##術中
##ｓｅｒ
##瘤
経路
ニ
長期入院
自己排痰
##冠
肘関節
サイト
ｅｃｈｏ
視覚
ミール
ジーラスタ
外用薬
##ｏｎｅ
休
そっ
基部
##ハン
痰培
##十
情報収集
##Ｃｈ
##渋
にく
##Ｓｕ
視野障害
夕食前血糖
すりガラス影
肺小細胞
##１９
特徴
子宮頚癌
##輪
ふらつきある
ＮｏＡ
##アー
##湿性咳嗽
１年前
ｅｓ
後で
通電
キサラタン
拭い
##手術
ＢｉＰＡＰ
固い
Ｓｔ
Ｖ１０
左側に
なおし
##午前
ポジティブフィードバック
##直腸癌
５８歳
問題ない
##ｔｅｒｏ
いたい
ライト
警察
不快なし
学生
##選
５９歳
薬剤使用
バイタルサインマルチチャート
問題点
見せる
求め
##ストレス
熱型注意
##ｏｒｅ
##した
ゾメタ
ＰＡＦ
Ｒｅｆｌｅｘ
濁
遅滞
##右手
ベシケア
メント
配布
１８歳
回り
会っ
た方
##既往
肺胞出血
バイタル問題なし
兼ね
ｓｈｕｎｔ
経っ
刺し
深い
##ックス
パウチ漏れ
体外
かゆみ
ｄｅｃｏｍｐｏｓｉｔｉｏｎ
ＳＭＡ
ちゃん
突発
実施中
広汎
円柱
##ｅｐｉ
##眠
ｃｅｌｌ
感なし
使える
ルト
##帰
嘔気等
ＶＩＩＩ
回腸
アトピー性
排便少量
##ｓｔａｇｅＩＩＩ
落屑
アシクロビル
効
##ブラ
４週間
右側に
血糖高値
５本
##ｍｏｒ
いらっしゃる
いくつか
良けれ
##Ｅｘ
雑誌
##ｓａｌ
信号
##備
##ｅｎｄ
##ｃａｎ
再狭窄
置く
鳴っ
##活
写真参照
２歳
押さ
掻破
訳
##流出
不明熱
##ちゃ
##つま
ＮＯＲ
ジスロマック
加湿
スピード
まち
合剤
丘疹
濃い
ｒａｔｅ
##ｚｏ
小腸ガス
３歳
術後疼痛
ｔｉｎ
３８歳
頸部痛
扁桃
##海
##結膜
要す
耳下腺
##ｔｏｒ
器質化
脳室拡大
望ま
みえ
##アナ
おいしい
清潔保持
##ａｎｔ
社会資源
中等量
ＩＸ
齢
チラー
満足
冠危険因子
そこで
乾燥なし
##ｔｅｒｉ
トキシン
アミロイドーシス
##乾燥
つたい
起因
エフィエント
心房
療
ＢＣｘ
##ｌｉｎｅ
職員
##ｓｔｉｃ
褥瘡好発部位
大動脈弁
関節裂隙
窓
見つかっ
##呼吸器
##良
ｇｌｕ
皮膚脆弱
ミルリーラ
振り
ｏｐｅｎ
##Ｌｔ
サラダ
ｖｉｔａｌｓｉｇｎ
触知可
##亜
ＭＡＣ
##接
遠隔転移
##両眼
##外傷
環指
##Ｒａ
##左足
かる
汚れ
症状消失
##徐
##差
６１歳
左内
地固め
里
ケ
##ｐｈｙ
知
Ｌｍｇ
ときどき
##孔
ｆａｅｃａｌｉｓ
心筋シンチ
お部屋
##ｉｎｉ
タルセバ
##ｖａｓ
女子
##Ｄｕ
##ｐｐ
日中傾眠
##窩
ｉｓ
梅毒
トロポニン
復職
##こう
ロボット
はっ
屯
フェキソフェナジン
バルプロ酸
１０秒
期外収縮
ｎｌ
冷たい
##系
##ｃｈｉ
靴下
全般
##好
##塞栓
嘔気時
ｌｉｖｅｒ
##巣
##リバ
冷蔵庫
受入れ
頑張る
##泊
##鉄
したため
アロプリノール
ＢＰＨ
論
痛覚
##狭
##ブル
ソルコーテフ
ｎｅｓｓ
潜在性
ひい
他者
茶褐色
粘調痰
アイファガン
低栄養状態
最
##八
ＣＰＦ
##言い
抱え
Ｅｘ
ペプタメン
左右差
##ｓｋ
##自動
日目
##ＳｔａｇｅＩＶ
ｎａｄｉｒ
お酒
全身状態悪化
##免疫
バッテリー
やせ
ＫＡＵ
続発性
換気障害
##元々
ｄｏ
プレ
##習
##ｃｉｎ
##栄養
##ｕｎｄ
触ら
害
ホクナリンテープ
ＶＭ
レバチオ
フィードバック
Ｔｙｐｅ
侯
呈する
一通り
膵頭
減ら
ＭＶＰ
咳嗽時
神経症
便多量
##ＳｔａｇｅＩＩＩ
ｐｅｄｉｓｄｏｒｓａｌｉｓ
見据え
頸椎症
房室ブロック
過程
抱負
ウイルス性
##挿入
ｄｉｓｅａｓｅ
働い
テック
ｍｏｄｅｒａｔｅ
ピン
##内膜
妊娠中
##殿
右乳房
ベーチェット病
##ゃ
##髄膜
わりなく
いため
便秘症
関心
##車
分離
ｓｍ
膀胱直腸障害
午後２時
級
肝脾触知せず
鉄欠乏
５２歳
注視
替える
ピリピリ
##陰性
脳浮腫
##肉芽
３週
フィ
カテカンファ
一般的
##介護
ＬＵＮＧ
##ニュー
Ｃｈｅｍ
興奮状態
１９９７年
しかしながら
書面
悪性所見なし
血行再建
関節拘縮
著効
##チャ
##進行
##埼玉
##聞き
にし
年末
コット
##埋
##トイレ
##反応性
死ぬ
バックアップ
送迎
重ね
清掃
トロッカー
ｔｓ
ワーク
##つぶ
おしり
閉め
緩やか
ぐったり
未明
８０歳
補強
##ｗｅｅｋｌｙ
メンタル
公私
Ｎｅｕｔ
ｇａｓ
ＡＶＡ
肥大
易
３０度
寝息
暴力
##斜
こぼし
Ｏｐｅ
境界明瞭
附属
##Ｆｒ
ｃａ
リパクレオン
声門
ＴＸＴ
Ｌａｓｉｘ
ｒｏｏｍ
刺入部発赤
ｏｏｚｉｎｇ
水分量
##ｒａｔｉｏｎ
対人
腫瘍性
移乗動作
ＬＶＨ
##やす
棚
周期性呼吸
設け
##種
外泊中異常連絡なし
ブジー
ａｎｔ
呼吸抑制
##申し
ｐａｒｅｓｔｈｅｓｉａ
皆
低残渣食
少量出血
タリビット
助成
##吐
ｅｓｃａｌａｔｉｏｎ
ＪＣＳＩＩＩ
##脊柱
##県
ＦＫ
年前
##Ｒｔ
リック
##緊張
おすすめ
##一度
器質的疾患
トルリシティ
タナトリル
ｐＯＭ
埼玉
両下肢浮腫
##ａｔｅ
思え
５７歳
ｍｍｈｇ
##剤
##吸
カマ
##探
セフメタゾン
長径
スタン
沿い
開窓
ｆＴ
##卵管
##６０
社
おかげさま
##播種
焦点
食欲ない
##土
##ｎｏｎ
自脈
##注
浮腫軽度
おちつい
バス
追って
四肢浮腫
膵体部癌
##踵
戦慄
そしたら
守ら
３時間後
しばしば
プラバスタチン
消極
薄
ｃｌｕｂｂｅｄｆｉｎｇｅｒｓ
バイアスピリン
飲も
##ｉｔ
ガラス
##ブリ
##静
##躁
##頬
３ＶＤ
材
一式
尿酸
胚
##胚
##共
##臓器
##終
##Ｓｔａ
皺
##つき
７６歳
一人暮らし
便破棄
パジャマ
フルメトロン
眠剤希望
##ｂｏｄｙ
##午後
急性心不全
##腸蠕動音
不快
向
菲薄化
つじつま
恐らく
僅か
イノバン
創処置
ＰＲＬ
頻回訪室
弁当
少量嘔吐
##ソー
ＡＳＶ
圧迫感
そわそわ
ｋｅ
##喘息
##顆粒
長期間
冷や汗
##抱
７８歳
多動
意識レベルの低下
下肢筋力低下
曲
かた
ママ
それら
膝下
地元
プル
聞け
転換
減塩
ドレッシング
ホスリボン
フロートロンガーメント
換算
票
ニー
サンドスタチン
超
ともなう
ｍｅ
神経因性膀胱
ビクシリン
７５
緊急時
##陥
よけれ
##湿
臨床試験
イレッサ
やる気
ＭＮ
５６歳
ａｘｉｌｌａｒｙ
福祉
残便感
迷っ
ミリオペン
昭和
##足背
喪失
##軽
##ｂｕ
##ｓｅｖｅｒｅ
いん
##ポー
##リンパ管
##赤血球
ＡＩＤＳ
##宿
出かける
肩関節
理想
肉芽腫
Ｉ型
ｒａ
差し入れ
ＡｏＤ
##メタ
本年
左半身
##もど
抜鈎
義
離し
細い
##ｄｒｏ
陰転化
油
胚凍結
プライマリー
話せ
Ｍｉｎｇａｚｚｉｎｉ
##ｃｌａｓｓ
左乳癌
ていう
ｐｏｌｙｐ
##恥
あぁ
時代
付け根
ａｍ
ノール
大動脈弁狭窄症
やり方
##カー
待期
芽腫
つまり
切れる
##状況
##押し
やめる
##口蓋
１型糖尿病
ＤＭあり
##ｓｉｏｎ
高次
肛門側
##左下葉
添付
整容
それなり
かかわら
##ｃａｒｄｉ
腎機能確認
正
ｎａｂ
必ずしも
肝門部胆管癌
コバシル
押さえ
舌癌
ｓｉｚｅ
##第
ＶｉｔＢ
ｎｏｔｉｃｔｅｒｉｃ
##月
膵臓
サラサラ
無症状
整っ
同種
抗てんかん
やれ
学習
Ｖｉｃｒｙｌ
決まる
長距離
ウォーカー
躁状態
##ドライ
ａｎ
交互
##テン
栓
血性排液
##持続
姪
ＣＢＤ
溶血性
どっち
現実的
##返
チック
##情
##江
##思
話しかける
Ｅｙｅｓ
急ぎ
Ｂｉｃｅｐｓ
固く
大学病院
ガン
##花
心筋
ｐｏｄ
##巧緻
##並
##ｔｒｉｖｉａｌ
##構
サーモコントア
##照
具
強力ポステリザン
エチゾラム
医科大学
##耳下腺
設後
患児
再装着
フォーカス
##健
##Ｂａｒ
椎間板
バファリン
狭窄部
##脈
エントモール
出して
##横隔膜
##怒
筋萎縮
##自発
##信
##ｒａｄｉ
ＬＭ
最終発作
胸部圧迫感
｜
臨める
入退院
曜日
溝
##丸
カンファランス
##ボー
３８
ｉｎｔａｋｅ
転位
次回採血
腹囲
ヘパ
系統
易感染状態
治まり
進
ｒｅｓｔｕｄｙ
##果
保留
ｄｉｐｌｏｐｉａ
コート
与え
甲状腺機能亢進症
ダウン
壊死性
小刻み歩行
アトニン
えれ
膨満感
占拠性病変
いろんな
除痛
回腸導管
##いつ
手元
##ラシ
ＡＰＤ
メソトレキセート
失語症
らす
##環境
##臍
ろう
##深部
ユーパスタ
##ダー
産婦人科
##トー
入学
##緩
##穿刺
才
呼吸訓練
５年前
ビデオ
ＨＫ
蛋白制限
創部離開
思い出し
甲
##繋
バルーン拡張
ｓｓｔａｂｌｅ
最高
ならびに
##フロー
##電気
聴い
##ＣＹ
離婚
熟眠
##Ｃａｒ
癒着性
姿み
ＧＴＴ
日常
顎下腺
オパル
##右膝
ミド
肺移植
早
##副鼻腔
タリオン
瞳孔不同
抗生物質
ぞ
ＵＶＢ
狭く
##かぶ
生活保護
ａｔｅ
##なん
##尖
埋込み
##ｇｏｏｄ
便通
##血腫
安静保持
違っ
食欲あり
３３歳
マイクロ
軽作業
##する
恥骨
日数
低色素性
ＤＦ
異型細胞
０点
苦しさ
掛ける
ミドレフリン
##Ｇｒａｄｅ
らず
高位
この間
消し
##刺
反復性
中枢神経
らない
ＩＯＤ
測る
##門
##伸展
##社
適度
くない
池
ュー
ピモベンダン
低アルブミン血症
労作性狭心症
頭痛い
ざ
７７歳
##汎
苦
ＴＳＳ
##因
３７歳
##かえ
把握痛
カメラ
Ｎｏｓｅ
アセトアミノフェン
ｐｒｏｂｌｅｍｌｉｓｔ
##併
##ゆる
##ａｃｔｉｖｅ
##血流
##ｓｉｄｅ
二次
クト
ｌｕｎｇ
##改
##木
両側卵巣
##毎
##不良
直ぐ
顔面浮腫
同室患者
##サラ
ｐｏｒ
ミルリノン
ロード
##ピー
ＤＤＤ
##ひっ
器質的
緊満
極めて
迫
グル音正常
痺れあり
ローコール
会議
##休
濾胞性
基礎
２３回
##メー
堂
##ｃＳｔａｇｅ
ｔｅｍｐｏｒａｌ
なき
治り
瞳孔径
大体
目標達成
##チュ
ＥＭ
書く
ｃｏｎｓ
通う
食物残渣
前額
変更点
##ＣＳ
エルゴメーター
人工骨頭
痰量多く
##駆
あたっ
罹患
５３歳
ドライブライン
リスパダール内用液
植皮術
##ｐａｒａ
ＱＴｃ
##望
胆管拡張
かね
##命
３４歳
数時間
##厳
急性胆管炎
ダイアモックス
##移動
##焼
膝折れ
##循環
後頭葉
削除
##トン
感染リスク
起算
バラ
予防接種
##脳室
##じゃ
注し
##心原性
側壁
膀胱瘻
付く
##ａｚ
軽度浮腫
リカルボン
グルタミン
ＰＰ
##ｔａｎ
日本語
寝たきり
病理検査
いえる
しびれ感
ドップラー
みとめる
ミック
迷走神経反射
喀血
脾摘
##採
気づい
##一過性
##成人
アリナミン
知らせ
##Ｃｅ
膨疹
生命
##閉鎖
申し送る
##バル
##骨折
##ｐｈａ
ＡＢＲ
甲状腺右葉
接する
口蓋
ＶｉｔａｌＢＴ
３６歳
椎間板ヘルニア
##ＬＮ
児心音
##島
##ｓｔｅｎｔ
アプニア
##務
グリメピリド
##ｗａｓ
関節症
止
けし
リコメンド
ふるえ
血性
リンパ節触知
ｐａｔｔｅｒｎ
##ラー
日本人
##ｅｎｉ
病的体験
軟部
痛持続
感染症状
反回神経麻痺
胸部単純写真
##ｌａｔｅ
##膜下
神経学
抗がん剤
デイサービス
Ｅａｒｓ
腎尿
水腎
##時間
ｌｉｇｈｔｒｅｆｌｅｘ
核出術
ｔｒａｃｅ
減少症
##ｃｏｍｐ
胆管狭窄
##ｙｎ
##溜
取り組ん
ｔｏｎｕｓ
濃縮
ＮＲ
##伏
粘膜炎
登校
昼寝
詰め
陣発
遠方
##ＦＯ
伝達
##良性
##Ｐｏ
##Ｃｌａｓｓ
示さ
ふまえ
##絶
ｍｉｎｒｅｇｕｌａｒ
アバスチン
ーい
抗うつ薬
眼脂
##垂
随時血糖
##ヘルニア
ユーロジン
##詰
町
##紙
トロミ
##ｎｅｇａｔｉｖｅ
剃毛
創部出血
##モー
フラグ
便塊
３枝病変
ディスカス
愛
ｍｇｐｏ
パー
##プライ
結論
拭き
ＦＥＮａ
##ため
##ｏｉ
わら
冠動脈狭窄
退出
原発不明
インスリン抵抗性
嗜好品
下がら
##リハ
坂
##弓
##ｉｎｄｕｃｔｉｏｎ
沢山
破壊
ＯＬ
##ｓｉｎ
パーキンソニズム
Ｔｅｌ
追眠
サーボ
おしっ
ガイドライン
Ｌｉｖｅｒ
たって
##群
##粉
##ｃｔ
オプサイト
ヒ
振る
眼帯
##ｃｏｎｔｒａ
稠
漿膜
３２歳
ミラクリッド
##激
嚢腫
転室
##ジョ
起き上がろ
ＩＢＷｋｇ
喉頭蓋
##触
ヘルペス
##サー
寄せ
##ＡＬ
上げ下げ
労作時息切れ
方向性
マス
スペース
ｎｏｍｕｒｍｕｒｓ
##食欲不振
まとまり
不感蒸泄
べる
さっぱり
アナフィラキシー
##潜
##衣
Ｈｏｌｔｅｒ
酸素需要
##修
遺伝子検査
ｏｎｃａｌｌ
ゲンタマイシン
オキファスト
##あん
塚
態
ずみ
##貼
陥没
座位保持
##強迫
ごくん
ＬＶＧ
患部
づく
##ポンプ
ｌｅｓ
前倒し
悪性黒色腫
ｍｏｖｅｍｅｎｔ
##梅
ａｄ
念の為
取り組む
##うか
吐下血
笑っ
逆唱
##巨大
組
プレイルーム
子部
##眩暈
運動耐容能
##言
##スチ
Ｄｏ
##辺縁
状態変動
##シャ
ミックス
尺
カラ
##シュ
４８歳
人工呼吸
下肢浮腫著明
ＭＶＲ
デル
##貯
##斑
半覚醒
##ｈｒ
噛ん
##私
ｎｙｓｔａｇｍｕｓ
充填
##リンパ腫
##ｉｃ
心筋炎
ガスコン
重要性
##磨
メルビン
##軟部
１セット
嚥下困難
視力障害
##逆流
##暴
ホスト
##ｖａｌ
##密
欠食
クラス
やっぱ
おっしゃっ
血内
ａｐｐｅｔｉｔｅ
取り寄せ
日内変動
自然滴下
バルサルタン
Ｗｆ
３９度
３９歳
業者
エンシュアリキッド
カーボン
##左副腎
##歴
残念
怒り
呼吸苦訴え
一因
耳漏
しやすい
５月９日
##南
ＯｒａｌＣａｖｉｔｙ
転落リスク
テックス
##昇
ａｌｂｉｃａｎｓ
平熱
##伸
##発汗
スリッパ
出血後
飲み物
Ｓ状結腸切除術
軽度圧痛
ぎりぎり
なさい
##大量
履い
オペオリ
##四
困り
安
妨げ
疼痛軽度
ＬＤＡ
##結腸
##ター
ＩＱ
ａｎｔｉｇｅｎｅｍｉａ
えら
尿沈渣
多飲
ワクチン
白癬
クリッピング
せん妄症状
満たす
瘻造設
##気が
腹水なし
##福
刺
##次
##ＤＭ
ｐｅｒ
網膜剥離
##ライン
淡々
##欠損
ｓＢｐ
##腸瘻
低体温
マグミット
膜炎
ピレチア
結石除去
ＤＰＰ
##疑
皮膚乾燥
ｐｉｌｌ
公家
休職
アーテン
５４歳
内服困難
##ウェ
##べ
鉗
##膣
感持続
進行性
ごめんね
伴
ｇｒａｆｔ
好酸球性
ｍｇｐｏｑｄ
##剥
肺うっ血
ｏｒｂｏｃｕｌｉ
腎機能増悪
##かし
急遽
##頭葉
すいません
##縫
ＢＤ
笑い
ＩＶＳ
２期
放置
##ａｕ
漢方
払え
ｏｋ
##右上葉
訴
との
##抜去
回路
ＥＢ
##欲
信
カルボプラチン
良性
ＩＢ
ティング
##摘
吸気
ボード
褥瘡リスク
身体活動
インシュリン
異常集積
束
ｆｉｎｅｃｒａｃｋｌｅｓ
##順
##体幹
植え込み
ｐｒｏ
##下腹部
##仙
水金
逸脱なし
楽しかっ
３４週
##ｓｌｉ
だす
##マグ
協議
ｔｒｉｓｏｍｙ
安全確保
ＦＭ
ガチフロ
非結核性
整備
##肘
肛門部痛
Ｒａｙｎａｕｄ
回旋
##トラン
##ｓｏｆ
脂質異常
ｔｈｅ
麻雀
##ｃｅｎ
夜間低血糖
脱し
外瘻
##ミル
肺疾患
カフ
発達障害
##掛
引く
３０秒
##ｂｌａ
メリスロン
み出し
障害者
成長
##ｉｄｅ
申し出
##白質
##精巣
悪露
右変形性
足取り
反対
##唾液
脊柱
皮膚障害
ＯＲＩＦ
扁平
##キサ
短期間
##千葉
通信
ｄｙｓａｒｔｈｒｉａ
自己調整
Ｑｕａｄ
##体動時
い事
ｎｅｇａｔｉｖｅＴ
慢性炎症
数字
サ
テープかぶれ
たて
##隣
##Ｂａ
秋
曲げ
ｆａｅｃｉｕｍ
いくら
不安定性
水痘
良さ
２８歳
Ｎｅｕｒｏｌｏｇｉｃａｌ
７９歳
症状変化
コンセント
眼疾患
血行動態
##視覚
ヨードホルム
新生児仮死
セフトリアキソン
促さ
筋膜炎
骨髄抑制期
鈍
及ぶ
ｃａｒｏｔｉｄ
胆石症
##落ち
表示
ポテリジオ
炭酸水
何だか
ベン
ええ
嘔気改善
熱型フォロー
##エク
すで
##Ｌｙｍｐｈ
看
きっ
密
狭い
変異
口元
容量
##髄液
１９９５年
##重度
アリクス
##ナー
##Ｖｉ
##ａｓｔ
高配
##ブレ
シクロスポリン
筒
腎後性
ｌａｇ
ＩＩＡ
##腸蠕動
臭い
当たる
胃液様
##ｎｓ
城
##描
##制
おこ
ｐＴ１ｂ
会話可能
長期的
トローチ
追視
ｖｄｓ
##筋緊張
##頚椎
漫画
##話
ロイド
ふらつき等
３階
輝度
ＬＲ
片頭痛
抑うつ症状
期間中
肩甲骨
##講
移
##股関節
咀嚼
破綻
並行
##絡
##息
そのもの
##腓骨
軽微
前屈
腫瘤影
タンニン酸アルブミン
つかえ感
リュープリン
夜間尿
上腹部痛
##ｒｅａ
ｆｌａｐ
６５日
##硬化
胞
てんとう
断裂
回腸人工肛門
Ａｐｓ
順次
アルサルミン
##過剰
落ち着け
治ら
##ｐｌｅ
コルヒチン
焦り
##法
増多
##Ａｓ
セファクロル
シムビコート
ペースト
結核性
いとのこ
一覧
転化
抜歯後
##ロン
平行棒
##ａｅ
ｓｅｒｏｕｓ
##椎体
##とり
プロマック
##ｃｕｌａｒ
##血管内
##間質
代理
##スク
いじめ
ＴＭＴ
##複
##ｓｉｓ
傾い
##不眠
父母
くり
ビット
カルチコール
ＩＮＦｂ
##ｒｅｎ
試す
失
##オル
実行
コソプト
カレンダー
任意
Ｃｘ
##全身性
ｍＯｓｍ
##肢
結腸切除
Ｘｉｅｎｃｅ
##老
３７週
攣縮性
##漏
グル
水疱形成
##ｌｕｎｇ
閉塞症
ロッカー
ｃｌｏｓｕｒｅ
父方
聞き取り
左ＴＨＡ
点滴漏れ
づき
脂肪腫
よっ
##安静時
館
診療科
詳しい
万が一
バルトレックス
倦怠感強い
左横隔膜下
ｓｙ
セントロメア
##採血
##訪
##ジン
ｓｔａｇｅＧ
ソルダクトン
ＥＭＰ
##ｃｏｍ
テン
##ｌｏｗ
基づい
保ち
軟口蓋
文京
声掛
にあ
調子良
腟洗浄
##寄
ハイリスク
積
##個
見送っ
##ａｇ
味覚
応
##呼
##遠位
ＯＣ
##胃瘻
通所
腱反射
##劇
##ルー
##福祉
##滅
##結節
##水様
聴覚
ＰＦＯ
引っ張ら
１９９６年
鑑み
ｔｏ
##ＲＴ
Ｋｉｄｎｅｙｓ
低Ｃａ血症
クスコ
##もの
##粘液
##ｃｒｏ
六君子湯
遊ぶ
##段
減退
##てんかん
ｘＭ
嘔気消失
半分くらい
##扁平
##反射
粒状影
##担
ａｔ
ｃｌｏａｃａｅ
腎動脈
気管挿管
中学
エネーボ
ｑｄ
##確
ｄｕｐ
##大腿骨
##脛骨
動作緩慢
ヒバ
ハイペン
麻痺性
##ＬＡ
観点
##ＣＥ
版
昨日排便
一報
ＳｔａｇｅＩＩ
##しま
かせ
覚悟
黒い
医学
軽度腫脹
腓骨
##自力
上室性
##高校
仕草
われ
##造
痔瘻
被膜
ａｎｅｍｉａ
##振り
ーゼ
戸
ＰＳＳ
間違っ
ペニシリン
##軸
証
もちろん
２７歳
##模
##ｎｄｌｉｎｅ
ｔｉｖｅ
見つけ
ＡＲＤＳ
##ｓｃａ
皮膚チェック
なんと
メディセーフフィットチップ
こだま
痩せ
##リスク
嫌がる
労作時呼吸苦
つらく
染色体
横紋筋融解症
読む
ＦＤ
バイタルサイン変動
##ａｃｉ
Ｇｌｅａｓｏｎｓｃｏｒｅ
低カリウム血症
窓口
長さ
ボンベ
##Ａｐ
洞不全
##ソン
それから
中学校
結合
##ドレナージ
両下腿浮腫
添付文書
ＭＰＨ
脳幹
##ｏｒｉ
２３歳
去年
易疲労感
Ｅｎｏｒｍａｌ
デプロメール
毒性
噴門
ジェスチャー
創傷
えっ
つかっ
##鮮
盲腸癌
##介助
##ＣＨ
ｔｈｅｒａｐｙ
##体温
ほんと
予備
ボス
如く
##削
ネクサバール
辞め
小細胞癌
レーション
膿瘍形成
##帰室
回る
##頬部
鋭
運動負荷
ｅｐｉｓｏｄｅ
悩ん
##想
##ｇｅｎｅｒａｌ
レス
ベタニス
ピドキサール
##アミ
手引き
ＦＦＲ
ｐｐｉｎｇ
ごめんなさい
クラリス
気管孔周囲
##感染症
アキレス腱
##不整脈
ＡＴＬ
##枝
うるさい
Ｓｐｌｅｅｎｎｏｔｐａｌｐ
子宮腺筋症
１週
療養型
来す
糖尿
ばい
##脊
４３歳
年末年始
苦慮
２分
夜間疼痛
##認知
始まり
##ｊｅ
１１月９日
新しく
##落
尋常性乾癬
##ｓｍａ
保管
ケアマネジャー
前部
軽度嘔気
ノルアドレナリン
体液貯留
酸素飽和度
運動可
##歌
##褐色
##気管孔
##ワン
パクリタキセル
隆起性病変
Ｕｐ
グラニセトロン
起居動作練習
##擦
難
##拭
Ｊｆｌｅｘ
ミオナール
脱出
急い
##履
##ＥＳ
##高血圧
完全右脚ブロック
##タバ
３５週
得意
寒く
菌検出
低信号
４９歳
わたし
体格
##スパ
効果的
吐物
ｔｉｍｅ
シャワー許可
##噛
##呼吸音
胸膜播種
ｓｏｎ
送ら
内瘻化
重なっ
腎細胞
ＱＲＳ
落ちる
るいそう
##初期
##ｌｅｆｔ
##曲
腸液
##どう
粒
##前立腺
他人
常
##折
手紙
ｚａｔｉｏｎ
##寒
便中等量
##ンタ
再挿管
体力低下
ロサルタン
タキソテール
英語
点滴ルート
混合性
##ジア
精神疾患
分散
責任
Ｖｉｔａｌｓｉｇｎｓ
遠い
亡くなっ
６月９日
##苦痛
てれ
ｍｓｅｃ
下大静脈
##膠原病
##臨
現状維持
ＰＷｔｈ
##ｍａｌ
##河
特異
##夕
##殺
シプロキサン
##窓
眼痛
水腫
崩し
Ｃｏｏｒｄｉｎａｔｉｏｎ
##ｍｉｃ
##鼻腔
重く
##ｃｌｏ
##圧痛
##ＥＭ
宅配
注腸造影
スリガラス影
チガソン
##肉
途絶
##東京都
心収縮
正面
最中
##つい
移っ
和らい
慣れる
レンタル
##露
２病変
ｄａｙＰ
王子
##可
ほら
アミカシン
口臭
コンプライアンス不良
辛
細胞性
痛軽度
着がえ
眼症状
ｃａｔｉｏｎ
６分間
夜間トイレ時
ＰＩＨ
机
述
緩め
壁運動低下
片付
##ｌｌａ
##脳幹
強直
##移植
##騒
日本酒
市販薬
ンパ
著名
アブストラル
マットレス
衣服
混ぜ
余計
##ｔｏｔａｌ
落ちつい
感想
##転落
レジオネラ
ずいぶん
##ｓｏｒ
陣痛
左股関節
##ｎｅｕｒｏ
抗リン脂質抗体症候群
膵液
ｖａ
問
細菌感染
繋がら
筆
るし
##左手
##巨
おいしく
形質細胞
##乾
##右肺上葉
セフカペンピボキシル
ステップ
吐く
引き上げ
##ｄｉｎｇ
五
胃管抜
皮膚色
介護認定
##誤嚥
っぽく
##変形
に際し
眼窩
##Ｃｘ
結膜
もらわ
ジェニナック
##縁
過呼吸
骨盤位
落胆
会陰部
ｍｍＨｇＰＲ
##咬
##透
##虫
甲状腺ホルモン
クリプトコッカス
ピング
抜
##打ち
サイクル
広く
##羊水
雲
解釈
ブロッカー
えー
##色素
顔面紅潮
よれ
アスタット
氷枕
##ストロ
嚥下機能障害
##保持
さばき
弱陽性
単語
ＴＥＥ
##養
##妊
乳幼児
４１歳
##粘調
##喘鳴
かれる
離乳食
##ｂｕｌ
##顆
叔母
項部硬直なし
ＥＢＶ
Ｔｒｉｃｅｐｓ
犬
##国立
##ぞ
##顔
活性
##ｇｒｅ
高まっ
Ｇ１０
腹腔ポート
病室内
パニック障害
##ｔｈｒｏ
##登
鎮静薬
離握手
##棘
代行
シー
そして
##胃管
##危
ＡＶＭ
せん妄状態
心臓マッサージ
ここに
ｏｒｂｏｒｉｓ
事情
術創
しゃっくり
一次
２９歳
部出血
カイン
低心機能
転居
制
##パラ
血栓性
ＲｏｏｍＡｉｒ
お薬手帳
##収縮
３日目
ＧＤＭ
##谷
取
無職
##Ｇｒａ
倦怠感著明
感覚異常
##双
はご
ＣＫＤＧ４
##循環器
##ｐｕｌ
ＥＮＰＤ
おかげ
睡眠状態
ｃｌｏｎｕｓ
隔リ
##ロコ
後血圧
ＴＤ
昨
ＤＷＩ
１２月９日
ーズ
##血小板
ラキソ
##効
借り
##Ａｃ
感覚鈍麻
デノタスチュアブル
広がる
##母指
Ｄｅｇ
死亡確認
ヒューマ
愛護
早けれ
食欲がない
鈍い
アルバイト
呂律
##呼び
下痢症状
ビクロックス
##足底
親戚
柱
交通事故
回復期
Ｔｏｃｉｌｉｚｕｍａｂ
再生不良性
脳梗塞既往
固定水
##湯
経過問題なし
##ルート
髭
事務
４４歳
歯周炎
筋痛
手伝い
睡眠中
怒っ
Ａｌｌｅｒｇｙ
##アシ
##脳血管
血沈
ｓｗｅｌｌｉｎｇ
舌根
住所
##ａｔｉｏｎ
深め
席
運転
学部
##はが
##ｐｅａｋ
愛着形成
ｃＳｔａｇｅＩＶ
##疲労
まだまだ
##振
生まれ
##ｓｉｇ
薬局
ｗｅａｎｉｎｇ
##千
ｄｉｓｔａｌ
咽頭収縮
抜釘
憩室炎
起因菌
１９歳
ｎｏｒｍａｌｆｌｏｒａ
##Ｇｒｏ
ＡＡＢＲ
沢
横抱き
地連
マンション
文章
Ｃｈｉｌｄ
右季肋部痛
寺
４７歳
ないん
##貸
麺
微熱継続
後発熱
ミトコンドリア
踝
##膠
##ふらつく
##あっ
内挿
極力
８月９日
##ベッド
ＡＬＤ
散発
小児喘息
たぶん
##聖
##糖
若い
求める
ｍｏ
左腸骨
##ベル
精
ステロイド副作用
すり
盲腸
カルタン
ＩＩ期
情
項部硬直
フォルテオ
皮部
助長
にかけ
静脈血栓
Ｈｏｆｆｍａｎｎ
はがれ
ガバペン
リトドリン
排尿困難
抱い
ゴ
子宮内膜症
細く
断念
開ける
インプラント
##判
いたく
幼少期
倦怠感持続
もうすぐ
アンモニア
##ｓｑｕ
戦
##中等量
一貫
膿尿
##動悸
欄
新出病変
##２５
##気腫
##織
##壊
ｒｅｓｅｃｔｉｏｎ
くださっ
##レミ
ギ
ｃｏｒｏｎａｒｙｒｉｓｋｆａｃｔｏｒ
埋没
##Ｂｒａ
誕生日
##単純
##仕
##アレ
ＩｇＡ腎症
##グレ
##規則
反応尿
##右中
##Ｐｅ
##テー
状態像
４日間
##ｃａｒｃｉｎｏｍａ
##血圧
ｆａｃｅ
トータル
膵嚢胞
##床
決めて
##ヘパリン
##源
##穿刺部
ｆａｃｉａｌｓｅｎｓａｔｉｏｎ
ａＶＬ
ｓｔａｇｅＩＩ
中止指示
出血リスク
一瞬
##あり
うつ状態
腎嚢胞
ＱＯＬ
発赤軽度
##腹部膨満
どうか
##ＳＭ
偽痛風
鬱病
##瘻
ＣｒａｎｉａｌＮｅｒｖｅｓ
いきなり
##上行結腸
ピル
ｆｅｖｅｒｕｐ
##モニター
覚める
ＧＰＩ
胃カメラ
引継ぎ
肋骨骨折
##コントロール
リットル
正中切開
プロトコル
掻爬
##弯
急性胆嚢炎
##左上腕
##耳介
暫く
##スタン
成功
神
統合
低ナトリウム血症
##揃
##甲状腺機能
考
##Ｘｉｅｎｃｅ
肝機能異常
東都
トリプタノール
２６歳
ＴＭＡ
インデラル
##ミニ
##ニコ
度目
遺伝子
エクセグラン
延び
四
##ピン
肺血
##七
ｒａｄ
汚染なし
妄想状態
##消化管
##外耳道
ビル
##イソジン
左軸偏位
焦燥
嵌頓
ａｌｃｏｈｏｌ
##おこ
広げ
甲状腺腫
基底核
やんわり
リウマチ性
##ＰＤ
麦
もしか
ＵＦＴ
転医
##ぷ
膨隆疹
##なく
ｍＡ
月日
ＣＮ
２４歳
固縮
下肢のしびれ
##姿勢
足背動脈触知可
兼ね合い
９月９日
ｐｅａｋ
旧
ＰＭＲ
頚部郭清
ｓｔｅｎｏｓｉｓ
４６歳
ゼローダ
さほど
摂
ムズムズ
##左上葉
##ｄｙｓ
アンブロキソール
強調像
洗い
課
縦隔炎
術後出血
調剤
無菌
##従命
鬱
##ＢＴ
ふらつきない
##ヘモ
マグセント
鼓室形成術
##喋
皮膚損傷
##胎盤
内外
##ＰＷ
夕飯
環境変化
苦痛強い
滲出少量
回し
ボーっと
楽しい
ＦＩＳ
乏尿
添い
硬直
##ｙｅ
移植後
フラジール
Ｏｓ
ｏｒｄｅｒ
##７０
出席
しろ
消耗
##換
ｍｉｃ
ステロイド糖尿病
腫瘍崩壊
##ビリルビン
７月９日
ｄｏｗｎ
ゼロ
ｃｅｌｌｓ
コリ
鼡径ヘルニア
拒絶
ブリ
##ＣＭ
学的
後排便
辺
歩行自立
##デュ
国立
##ｒｉｎ
皮下膿瘍
頂
極端
らさ
##乳緊
##ＵＳ
あける
ピトレシン
##レー
##ｓｉｖｅ
ワ
呼吸障害
介
ケーサプライ
かない
##ュー
ｔｕｓ
##ｓｍａｌｌ
然
１発
Ｌｙｍｐｈｎｏｄｅ
骨髄性
##各
排便コントロール不良
参
ハイリスク薬
##カフ
ＣＨ
##前頭
ｎｉｖｅａｕ
３Ｍ
あいまい
本当
勢い
預かっ
単発
##粘稠
ウエスト
四肢末梢
ｆａｃｉａｌａｐｐｅａｒａｎｃｅ
頑張ら
ＩＰＩ
右水腎症
##あら
らく
ＡＲＳ
##Ｍｙ
下肢麻痺
鍼灸
詰まり
メジ
胃切除術
２２歳
爪白癬
１５歳
##ｃｌａ
##甲
科医
膵石
ｔｉｃ
ハマ
##エア
休止
##表皮
省
##ドロ
##ｓｉｎｕｓ
コンフォケア
##ｂｌｏ
飯
活
止血術
ｐａｓｓｉｖｅ
園
一体
##ｇｌｏ
せっかく
高Ｋ
##息切れ
２月９日
グラクティブ
伝導
乗せ
充足
笑
##ｂｒｉ
児活気
治まる
##わり
飲み込む
骨髄生検
役割
左眼瞼
回転性
菌状息肉症
発赤等
##プロテ
遠く
輪状
ＳＦ
##トル
夜眠
グルセルナ
##ＣＸ
コイル
ＣＭＬ
##漿
高次脳機能障害
取って
腹部膨満著明
問い
ＶｉｔＤ
捉え
##汁
##Ｔｒａ
ｓｔｕｄｙ
##後頭
おこない
むずむず
イスコチン
##服
##岩
ｓｐａｃｅ
ワン
適当
ニング
ベプリコール
##回腸
水分制限
ゾール
ｖｉｔａｌｓｉｇｎｓｔａｂｌｅ
ｇＣｒｅ
プラリア
忙しく
レート
上司
##ＣＶ
##子宮内膜
##アロ
Ｇｌｅｎｎ
ｕｇｈ
左室肥大
##びらん
スポット
現れ
##かん
##ｓｕｒ
##インス
価
##咳
花
高圧
合同
ｐａｌｍａｒｅｒｙｔｈｅｍａ
基礎疾患
最期
環
補足
##即
多尿
左水腎症
##内服
##翌
肺血栓
ＴＭＺ
やか
保健
移る
夜間歩行
##末
##前胸部
った
祖父母
##インテ
##ＦＩ
##確認
ＩＨ
うっすら
妊婦健診
保育
砕石位
アレルギー反応
上肢抑制
人工関節
自律
##悪く
##思考
繋がっ
癌Ｔ
眼瞼浮腫
限
##森
##母乳
数年前
悪いこと
ｓｔａｇｅＩＩＩＡ
ソリューゲン
充実
分析
望
５１歳
肺塞栓症
３３週
紫
##抑うつ
Ｅｘｔｒｅｍｉｔｉｅｓ
##申
##ｓｔａｂｌｅ
有症
ランダ
助かり
経口摂取不良
ｇｉｏ
親指
好み
不安強く
動脈管
##ｍｉｄ
ＶｅｅｎＦ
リマチル
神経鞘腫
おやつ
##ｓｈａｒｐ
嬉し
高血圧性
ｐｕｒｐｕｒａ
渡さ
日に日に
性低下
痛みない
日誌
収まり
側部
ヤ
##ａｔｅｄ
##走
##ｃｔｏ
４週
ＴｇＡｂ
ｗａｔｔ
じゃっ
原則
##盗
作業所
捻転
##ｒｄ
厳密
家人
ＲＩＳ
Ｗｅｂｅｒ
##付着
つなぎ
##メラ
##セフ
主張
慢性Ｃ型肝炎
拡散
##真っ
ｐａｃｉｎｇ
衝動性
##井
ｆａｉｌｕｒｅ
##ハー
市立病院
##ゅ
とう
閾値
ひとり
ザンタック
##体重
振幅
らせ
骨髄抑制中
##疲
乳突蜂巣
ドライシロップ
メーカ
動かさ
１回目
下さっ
##最近
##ロール
Ａｌｉｎｅ
ｂｒａｃｈｉｏｒａｄｉａｌ
ＦＦ
つなげ
ｃｏｎｓｏｌｉｄａｔｉｏｎ
低周波
衛生
##ｓｅｃ
##鼓膜
口蓋裂
歩行出来
臍帯血
##Ｈｙ
後方固定
甲状腺癌
##建
##敷
ｐｒｏｔｒｕｓｉｏｎ
暴言
##心不全
あす
皮膚潰瘍
行動化
３１歳
##梗塞
出血点
転じ
デックス
発し
若年
使い方
挟ん
そのままで
##ｆｒｅ
視診
ｆｌｏｗ
脱い
サワイ
いね
##ビン
Ａｐｐｅａｒａｎｃｅ
３０枚
真菌感染
ぶどう膜炎
ラステット
ゾビラックス
日にち
症状持続
当方
近づい
##麦
ｎｏｔｉｃｔｅｒｉｃｐｕｐｉｌｓ
５枚
##ＨＢ
##保護
硬さ
上体
すか
アカシジア
幸いに
１９９４年
卒
経由
##コミュニケーション
ＨＣＭ
##濁
##網
効果不十分
苦悶
##患
外れる
ほ
杏
##ａｎｅ
イムネース
読
##たた
きく
##踏
##ｏｕｔ
ロラメット
##熱感
##異型
ｖｉｂｒａｔｉｏｎ
断定
怒ら
手前
礼節
##男
##板
ピンク色
直径
エアロバイク
ジム
頚部骨折
つらさ
ｃｅｌｌｌｙｍｐｈｏｍａ
##弾性
##背屈
##製
漏
止まる
バクト
完全房室ブロック
パップ
##書き
##房室
##ｏｐｅ
ガス貯留
横浜
ホーム
ｓｏｓｏ
玉
白内障クリニカルパス
大きめ
ｌａｒ
##内側
ピース
３６週
##右上腕
##止血
強め
絡
Ｖｉｔ
流す
##糸球体
ＮＴＭ
頼ん
##動脈管
##歩行状態
##はじ
守れる
咳払い
多発転移
共通
##膵頭部
３２週
ほんとに
レスタミンコーワクリーム
訂正
呼吸器離脱
ＣＴＯ
順番
３０年
Ｃｏａｇ
##ビー
近日
##ＯＬ
コントローラー
父様
心外
下限
##戸
ディング
３８週
粉瘤
ガス抜き
##ＰＶ
##ＴＴ
クールダウン
感覚障害なし
ＰＬＳ
ステロン症
帰国
皮膚保護
たこつぼ
創部滲出
辛さ
レジスタンストレーニング
ａｎｋｌｅ
##グラン
溜まり
適正
画面
７時間
守っ
##ｏｏ
クベース
##鎖骨下
デメリット
肥大型心筋症
##ステー
##ｐｒｉ
受験
##蓋
ｔｃｈ
ｍａｌｔｏｐｈｉｌｉａ
グラフィ
プロポフォール
##大血管
ルプラック
##拍
鞘
正式
ＩｇＧｉｎｄｅｘ
##試験
追い
７日間
##Ｌｅｖｉｎｅ
腫大リンパ節
##志
##ｓｓｕ
ペア
痛みもない
##ＤＯ
椎間板炎
Ｓｍ
フリバス
アミノ酸
覚低下
きっと
冠動脈造影
述べる
エ
ｈｅａｒｉｎｇ
##黄斑
はり
チーズ
事後
ずる
股
ナイキサン
窩動
持て
運動量
##フォー
##ワイ
不正出血
再発なし
##うっ
生活習慣
細
Ｅｍ
生体肝移植後
カンジダ症
リオ
ａｂｎｏｒｍａｌＱ
##ａｓｐｉ
##室内
受精
##治療
##交通
圧迫骨折
ＩｇＧ４関連疾患
小水
起立時
仲
脊髄症
##告
ｔｅｄ
エブランチル
##エピ
アナフラニール
向精神薬
##固
ｈａｍｓｔｒｉｎｇｓ
不穏状態
横切開
ざ瘡
少量摂取
円形
ＸＥＬＯＸ
外耳道
１９９０年
##感染徴候
創部疼痛
##濃
あがり
忘れる
苦痛症状
イソジン消毒
午前１０時
ｂｏｗｅｌｓｏｕｎｄ
危ない
ニア
蒼白
##テル
##慶
多々
淡
ｏｓ
ｔｙ
##金属
ロイケリン
##質
##ジュ
いやー
##口腔ケア
いまひとつ
##ダン
##Ｄｒ
##起立
ほてり
##ぐず
癆
臨む
レクサプロ
全身浮腫
一つ一つ
ふらつい
顔面蒼白
すいすい
貫通
腹腔内膿瘍
関節腫脹
ガーグルベースン
ｒｅｓｔ
ＸｉｅｎｃｅＶ
ホーマンズサイン
##気分不快
もり
##膵管
手袋
##粘膜下
クローン病
ｃｏｎｔｒａｓｔｍｅｄｉｕｍ
腎静脈
ｒａｔｅｃｏｎｔｒｏｌ
顔色良好
##ｓｃｏ
ＶＲ
夜間不穏
時頓用
見送る
介し
##Ｈｏｍａ
##読み
ペルサンチン
ｎｏｔｅｎｄｅｒｎｅｓｓ
##橈骨
##ａａＩＰＩ
頚部痛
##ＳＴ
##二次性
上気道炎
自動
向こう
切開創
治し
個別
対座
痛み刺激
春
止痢剤
ＳＶ
頸管長
甲状腺左葉
##仙骨
間歇性
##好き
脱水所見
最強
左側胸部
ＵＬＡＴＵＲＥ
ｒｏｕｎｄａｎｄｉｓｏｃｏｒｉｃ
リストバンド
##さし
##ＰＣ
バイタル異常なし
医者
##上気道
##万
ｔｒａｐｅｚｉｕｓ
圧迫固定
３月９日
##ａｋ
冷やし
膵液瘻
皮膚瘻
見つから
##骨髄抑制
ノイロトロピン
##危険
コルチゾール
ａｌｂ
基
寂しい
らしく
だいじょうぶ
ＰＴＣ
歯痛
ｗｋ
##陰嚢
ｗｒｉｓｔｅｘｔ
拘束性障害
連休明け
肉芽形成
Ｇｅｎｅｒａｌｓｔａｔｕｓ
ｌｅｖｅｌ
長かっ
Ｓｕｐｅｒｆｉｃｉａｌ
１７歳
あるとき
最短
微熱持続
乏しかっ
食欲良好
##心音
収まっ
##食物
リスミー
##ａｄｊｕｖａｎｔ
##右肩
##撮
##狭心
周囲発赤
盲
Ｃａｐ
##ケン
わき
##血球
神経芽腫
促せ
##心肺
けっこう
##エレ
ｗｒｉｓｔｆｌｅｘ
##ｅｎｔａ
時間前
##ふわ
ウォームアップ
１２歳
塗り絵
緊急帝王切開
##ｆｏｌｌｏｗ
応じる
シックデイ
倦怠感軽度
ボ
右ＴＫＡ
ｐｏｒｔ
テモダール
顆
脊柱管狭窄
豆
ジストロフィー
発熱継続
有し
##ＲＯ
糖毒性
ピックアップ
り感
是非
##眠気
症状等
##迷
脾腎
持続的
ｄｙｓｐｈａｇｉａ
##汚
##靱帯
##摂食
役
空腸吻合
ｃｈｏ
##くら
##クリオ
ｋｅｒ
摂食障害
離棟
##蹴
アイソレーター
いいんじゃない
ＭＳＡ
夜間断眠
ＣＹＡ
金属
ｄｕｅｔｏ
会う
下面
角度
悪臭
##ＳｔａｇｅＩＩ
##胃部不快
遵守
触知せず
気腫
お答え
最終排便
##胃癌
成
吸気時
創部異常なし
動脈炎
肝癌
##粗
ｔｒｉｖｉａｌ
替
浴後
がよく
ｐｌａｓｔｙ
右側腹部痛
##中心
##ｔａｒ
##ＡＶ
##ミノ
胸郭
##右心
追
##麻
むき
科し
小彎
##高血糖
網
胃腸炎
##去
奏効
自己処置
垂れ
##三叉
代用
##脳梗塞
連発
胆泥
焦っ
Ｐｒｏｂｌｅｍｌｉｓｔ
鎖肛
ｎｏｔｓｗｏｌｌｅｎ
鍵
##ｓｔａｇｅＩＩ
もたれ
##検
るい
ないっ
##Ｐｒｅ
ＪＲ
当てる
##開口
##悪性腫瘍
##行き
ソファ
例えば
##マッ
苦しい感じ
##療
そもそも
##ｈｅｒ
##ｗａｌｌ
追加処方
##涙ぐ
ＳＪ
##中部
実行委員
裂部
気分不良
##番
梗塞巣
周歩行
##しく
##ｇｌｕ
すく
眠剤変更
ＦＬＡＩＲ
##腎動脈
繰り返さ
外見
槽
##紅斑
厳しく
ｉｎｏｕｔ
夕カン
##Ｔａ
##ｐＴ
オンコール
たため
##腹緊
乗る
ｑｕａｄｒｉｃｅｐｓ
昇圧剤
##新生児
広い
##肋骨
##アス
確認済み
膝痛
集簇
##ｃｌｕ
##希
髪の毛
早産児
ロルカム
##真皮
ぬ
１０歳
##膵炎
##仮性
過敏性
尿路結石
話し合う
ｐｉｔｔｉｎｇｓｃａｒ
ａｕ
感謝
多分
##売
お湯
６か月
同意書取得済み
##ｈｅｅｌ
##合併症
ｐＮ
##ところ
エスポー
撮っ
##子宮内
ＫＹ
ｕｔ
##辛
##植
ｖｉｔａｌｓｉｇｎｓ
待
直腸癌Ｒｂ
仮
##サイト
望ん
##ｂｒｏ
ウォシュレット
脈波
ＳＡＨ
ｓｈａｒｐｌｕｎｇｆｉｅｌｄ
##ガーゼ
顎骨
##滲出
Ａ９
##もや
何となく
サブイレウス
プラ
初回歩行
ＣＯ２ナルコーシス
不安焦燥
ａｄｅｎｏｍａ
恐怖心
在症状
防水
ｉｎｇｕｉｎａｌｎｏｔｓｗｏｌｌｅｎ
旦那さん
##しょ
##アプ
勘違い
ＬＳＢ
発赤持続
ＨＩＴ
脳外
ｔｒｅｍｏｒ
年月日
##ｉｎａｌ
高集積
顕在
Ｒｅｃｏｍｍｅｎｄａｔｉｏｎ
##富
ミア
痰中等量
新規病変
喉頭気管分離
挫創
##揺
ビソノテープ
Ｄｒｉｐ
心血
##笑
クラフォラン
立てる
引っ越し
##ユー
##組
流暢性
脳実質
ｄｒｙ
ＥＫＧ
７歳
##カット
##ＢＳ
精神発達
##Ｇｅ
##Ｄａ
ｃｏｃｃｕｓ
ｐｅｔｅｃｈｉａ
垂れ込み
声帯麻痺
##帝
ｌｅｓｉｏｎ
オキシマイザー
幼稚園
ＧＩＳＴ
基づく
アトロピン
可動
##切除
ＢＴＳ
乳頭状
下端
飽き
押せ
乳緊なし
電源
ＩＦ
夜間排尿
ＬＩ
ｍｉｎＳｐＯ
インクレミンシロップ
まえ
肝機能検査
チップ
カル
ｗｒｉｓｔ
４０本
ｐｍ
##杉
##オキシ
ハイ
Ａｏ
##占
人間関係
##違和感
##慣
合併症なし
##橈骨動脈
執刀
更生
##陰影
１２階
胸腺腫
年金
時指示
５歳
がけ
ＥＧＦＲｍｕｔａｔｉｏｎ
##召し
##なり
出張
３枚
処遇
性肺炎
ｓｉｖｅ
##左卵巣
ＮＡＳＨ
##子宮筋腫
過鎮静
利尿期
##看護
##借
エルカルチン
はかり
##層
波及
用件
はやく
##外転
速い
日赤
もお
フットケア
下り
高揚
アモキシシリン
腓
##喀出
ｓｅｖｅｒｅＡＳ
人工肛門閉鎖
ハウス
西
##ファイ
ＸＲ
Ｔ細胞
楽し
済ん
##ｌａｒｇｅ
冷
混じる
待た
ｒｉｐ
##ｍｉｃｒｏ
ｗａｙ
根拠
片側
シド
##羽
ｔｅｌａｎｇｉｅｃｔａｓｉａ
Ｃｏｎｓ
ｐｒｏｔｏｃｏｌ
ピロリ
座薬
鼠径リンパ節
##標
##測
育児手技
##乳癌
はかれ
クレメジン
固め
##ｓｕｐｐ
##プル
８１歳
##ヒル
たまり
６本
##専
フルタイド
椎弓形成術
気分不快等
煙草
データー
##ｍｅｒ
アクトシン
##ｅｎｄｏ
蛋白質
##ｆｒａ
ｄａｔｉｏｎ
すっかり
１０日間
ともない
ＢＥＰ
##ケー
２０年前
Ｔｏｐｏ
半盲
葛藤
##使い
深部静脈血栓
ａｅ
酸素化低下
##薬物
ｓｕｐｕｒａｃｌａｖｉｃｕｌａｒ
ｐａｌａｔａｌｍｏｖｅｍｅｎｔ
血管造影
悲観
少数
ｂｒａｃｈｉａｌ
バギング
脂肪組織
##鞘
##ｈｙｐｏ
漠然と
浮腫持続
##追い
ｉａ
##うっ血
##ＧＦ
##ａｃｕｔｅ
ｄａ
はさみ
ｃｌｅ
##ｉｎｔｅｒ
仰ぐ
便秘気味
##ｉｇ
##画
ユリノーム
##ｐｏｌｙ
アレリウ
リスペリドン
水疱性
４月９日
絶対安静
##ｌｉｃ
##傾
腹壁瘢痕
##右前
痛いっ
##ｎｅｕ
##ちょ
##洗
ｒｈｏｎｃｈｉ
##妄想
妊
ｔｕｍ
サル
指定
胸腺
除く
沈降
摘出術
##スキン
##砕
安堵
自発痛なし
Ｒａｙｎａｕｄ症状
かゆく
##結石
濃く
本日ＨＤ
ｒｅｆｌｅｘ
便少
センチネルリンパ節
##消化器
置換術後
人工物
しそう
Ｕｔ
##浮か
##下垂
タル
##シロ
腔内
##組み
肝内胆管拡張
ウイルス感染
##ネラ
浸潤影なし
悩み
期相当
還流
２日目
境界型
ごとく
##尺骨
##保健
寝入る
##晴
##ｓｅｒｏ
びる
ｏｘｙｔｏｃａ
離脱症状
##を
ｐｏｐｌｉｔｅａｌ
アイトロール
臭気
鳴り
##痛み
##胃部
余地
４年前
片手
残留
サイレース
ＡＺＰ
あっち
ガーゼ汚染
スタ
ストン
ガス像
肢位
馬
頭部外傷
##いや
ＩｇＥ
##規
##疾患
ＰＴＥ
２１歳
立た
ゆ
##パウチ
##２８
粘膜疹
##透過性
冬
##Ｔ２
##ｔｈｅｌｉａｌ
##朝方
頭蓋内病変
##リア
##保険
不妊治療
##専門
ならび
##データ
##経口摂取
チニブ
ザー
４８時間
〆
職種
予
ｉｎｓｕｌｉｎ
##噴
##センタ
美味しい
##ｍｂｏ
生物学
ａｌｌ
鼓
鬱血
３１週
##ｒａｔｉ
凝固異常
随意
ロイナーゼ
用いる
きつく
##ｌｏｇｉｃａｌ
##週
向く
ｈｅａｒｔ
##ーム
糸球体腎炎
ガーレ
耳鳴り
##痒
１９９３年
弛緩
髄液漏
洗面所
ＤＬｃｏ
##池
ＯＰＥＮ
低かっ
Ｂａｌａｎｃｅ
##ある
ｄｉｓｃｈａｒｇｅ
##器質的
##いっ
##患肢
転移なし
##可動
拭く
冗談
難い
費用
カンファ
##縦
校
強度
硬度
胃残なし
ゼ
複雑
ｓｓｈａｒｐ
楽しく
フィット
ｃｌｉｔａｘｅｌ
上行大動脈
もご
##食思不振
睡眠状況確認
##周
緊満感
シムビコートタービュヘイラー
ネオ
嘔気症状
##ｗｅｅｋ
Ｉｔｏ
メスチノン
##カン
##佐
##ニー
人間
##招
動脈閉塞
シュア
##ュ
育
##熱発
##ａｄｅｎｏ
##Ｓｔａｇｅ
軸捻転
まずい
めど
##唇
乳輪
履き
ＣＯＡＧＵＬＡＴＩＯＮ
ｄｅｃｅ
##ｓｔｒｉ
ＩＣＭ
こむ
##ＶＩ
##移乗
##字
##凹
基準範囲
部癌
ａＣＬ
##門部
表情硬い
細かく
##ｐａｉｎ
行なわ
##ｔｏｒｙ
飲料
是正
小刻み
有る
尿崩症
##開放
挟
つれ
ルミガン
##ｃｙｔｏ
偏位なし
パーキンソン
##装着
書か
角化
体重減
##虚血
ｏｖｅｒ
集積増加
塗り
ａｎｇｉｏ
鼻血
刺激症状
ｒｅｐａｉｒ
ＤＧ
労作時呼吸困難
人工心臓
陽
腹痛等
失礼
ＬＯＳ
##平成
##夕方
局在
ＰＫ
フィン
##ｍａｔｏ
インヴェガ
カウンセリング
肺癌疑い
貼用
１５本
チョコレート
両側水腎症
温め
見られません
硬化性
継
海馬
周囲炎
反応低下
外そう
##離床
ａｂｌａｔｉｏｎ
散布
ＡＺＡ
預け
##メイン
##赤色
コレステロール
アイサイン
##五
ブレディニン
##ペーシング
##麻酔
##捻
可動域制限
聴力低下
ＦＧＲ
３０点
わー
バセドウ病
##空洞
##残尿
ｃｌｏｓｅｄ
追跡
脳死
ｍＥＳＨＡＰ
ミニリンメルト
２０回
Ｂａｓｅｄｏｗ病
##いち
ｕＡＰ
##いき
イリノテカン
##ｔｕｍｏｒ
ニトロペン舌下
ｃｏｏｌｉｎｇ
##軟便
##ガー
ゲーベンクリーム
##淡血性
大小
##頻脈
未破裂
片づけ
察
インターフェロン
腎気丸
腹部超音波
ハイドレア
鱗屑
腹部単純
見込ま
##昭和
既知
居る
ーマ
歩行距離
血液腫瘍
非典型
##貰
メディカル
##課
##メディ
ソルメドロール
手技問題
グラム
##ｔｒａｎ
ーシス
軟化症
前歯
しけれ
穿通
ファンギゾンシロップ
さすっ
ＥｔＣＯ
歌
##ｎｏｒｍａ
見れ
自宅療養
##屋
##阻
吸い
古い
蝶形骨
塗る
だー
ルリコンクリーム
かさ
３４時間
そう痒
叫ん
状態問題
##ポート
薬効理解
##ウイルス
軽度ふらつきあり
##一般
心因性
カテーテル感染
ｒａｌ
ｄｉｌａｔａｔｉｏｎ
##脂
１０月９日
ｇｅｎｄｅｒ
経口糖尿病薬
##ぜ
診察券
##びり
健忘
骨折後
時間後
見解
脂質代謝異常
ｆｉｎｇｅｒｆｌｅｘ
枝病変
牛車
##食事摂取
##揚
##Ｍｕｒ
胆汁性
ｉｍ
##価
微細
微妙
肩こり
##ビタミン
ｍｏｕｔｈａｎｇｌｅ
##買
やろう
セララ
酸素吸入
ＧＥＲ
##右肺下葉
##練
置か
固形物
歩いた
署名
ｗｒｉｎｋｌｅｆｏｒｅｈｅａｄ
内服拒否
視神経
Ｖｍａｘ
親族
めて
ｆｉｎｇｅｒｅｘｔ
Ｈｂ
叔父
幼少
##ｐｒａ
バイタルサイン異常
キュバール
##筋力
ｍｕｓ
ＳＳＩ
##チュー
##アラ
チクチク
離開なし
左腎盂
ＳＩＡＤ
新生
すごし
申告
会話成立
上座
じわじわ
さー
側脳室
##ギャ
##左房
水準
ｌｏａｄｉｎｇ
##んで
異常信号
らか
##ｖａｎ
失見当識
甥
ＳｔａｇｅＩ
機能低下症
##ｔｕｂ
ラッチオン
口呼吸
ＥＩＳ
臼
真菌症
##ｋｉｎ
##とろ
ＡＴＰ
見た目
三角筋
##ＤＲ
とどまっ
##腋窩
ｃｌａｓｓＩ
クロピドグレル
##細菌
##おお
殿
##ｓｔｅｒ
交替
##女
におい
Ｄｃｈｅｃｋ
##ＣＮＳ
##ｉｇｈｔ
急性心筋梗塞
激痛
ｃｔｅｄ
口腔期
握り
ｍｏｄｅｒａｔｅＭＲ
ｆｕｓｉｏｎ
差し上げ
症症状
５点
寄与
##念
安静度制限
##頻
朝ごはん
類天疱瘡
双胎
##逃
アフタ
低Ａｌｂ
消極的
何時
再増悪
教育目的
ＳｔａｇｅＩＩＩ
安全対策
皮膚切開
含有
容器
胸水増加
##関
##鼠径
##１８
脳卒中
異物
病巣
壁運動異常
ＧＢＳ
グロブリン血症
右下腹部痛
##ｅｔｉ
##ｌｅｖｅｌ
筋性防御
##映
閉鎖症
Ｂａｂｉｎｓｋｉｓｉｇｎ
##カテーテル
イレオストミー
##上顎
動脈性
##右副腎
##ｖｅｒｓｅ
亀裂
雰囲気
##ード
はぁ
##肛門周囲
##証
ｃａｒｄｉａ
工
心臓移植
選ん
##胃が
され
##腎性
胸腔Ｄ
うなずく
##自閉
ＮＦＢ
Ｎｏｇｒｏｗｔｈ
輸血歴
及ん
おさまる
左手関節
労作時呼吸
内痔核
両側下肺野
１４歳
タッチング
覚醒状態
##結紮
体動時疼痛
気道閉塞
##避
発熱性好中球
ＶＡＰ
##Ｘｐ
高カリウム血症
##濾
##偶
##バイタル
上咽頭癌
##薬剤
前立腺炎
ぼ
##重症
##上腕
##鬱
##胸痛
ウルトラ
##記銘
病床
抗菌
カー
ＭＡＬＴ
ｐｒｅｃｕｒｓｏｒＡＬＬ
ウロバック
サイ
閉鎖不全症
##分泌
ＰＲＡ
##看
毎年
##両下腿
ｎｅｕｔｒｏ
##ｎｕ
軟らかい
##ｂｉｌａｔｅｒａｌ
優肌絆
事実
##荷重
握っ
##ｎａｓａｌ
##子宮頸
集
日大
##Ｅｎｔｅｒｏ
クロス
室温
さら
##床上
##外反
挙児希望
人工内耳
ｓｙｍｍｅｔｒｉｃ
日中歩行
##強制
鼻閉
Ｊｏ
##ｆｅｒ
太もも
美味しく
りる
接合
血小板低下
退屈
##たど
ケトン
##殴
ソフィア
##美
細菌尿
ＺＰ
##ｕｒｏ
腸骨動脈瘤
集中力
遅れる
スタート
##投与
##松葉
胃癌腹膜
転移再発
類似
##マクロ
ふらつき軽度
##カプ
##行動
貸し出し
ｓｅｐｓｉｓ
##囲
##亢進
上げ下ろし
足白癬
内圧
##Ｋｅ
承認
１６歳
すみ
ｓｔａｇｅＩ
##始
不良肉芽
脊椎炎
落ち込む
メット
代償
ミオパチー
##伊
##絞
ｃｏａｒｓｅｃｒａｃｋｌｅ
がれ
陥凹
##ショック
Ｄｒａｉｎ
ｍａｎ
失見当
術後せん妄
フルカリック
ぼんやり
##マル
##楽
##吊
尿糖
ｔｏｄｏ
会社員
ｌｌａ
ｃｕｓ
ｌａｂｏｄａｔａ
##品
##竹
ルス
ｃｍＢＷ
ありがたい
金銭
##ラウンド
中国
##ｓｋｉｎ
ｘｉａ
割合
脱水症状
テオロング
ストッキネット
仮に
##ぴ
##取り組
自立支援
ｔ病
徘徊
漏出性
##膿疱
正直
##ｃｅｐ
ｆｕｎｃｔｉｏｎ
アルドステロン
胴拘束
フト
しきりに
##会陰
##仙骨部
強調
Ｃａｒｂｏｐｌａｔｉｎ
ドレーンクランプ
ウォーター
##ｂａｃｔｅｒｉ
##キー
帝王切開術
ＮＬＦ
浮腫状
ＣＯＳ
そうね
クリアランス
全然痛くない
左膝関節
水封
会え
往復歩行
心室頻拍
固
除い
##ｌｅｎ
##カテーテル関連
大まか
知人
##都
中心性
喀痰細胞診
能低下
##偽
細胞腫
ステート
##途
取込み
##利
ｈｏａｒｓｅｎｅｓｓ
クス
感染注意
##チェ
ケーキ
鼻翼
##ｓｏｎ
橈側
##ＰＴＸ
##稲
ｊ
Ｓｋｉｎ
##資
##Ｃｒｅ
コスト
呼吸なし
##室
静止
##術
フロリードゲル
網膜
ＳｔａｇｅＩＶＡ
１９９２年
術中出血
死去
膿皮症
##ｐａｔｈ
慢性甲状腺炎
膵尾
ｓｔｏｍａ
嚥下困難感
保育園
##肺雑音
##吹
ケモ
##ｓｏｃｉ
インスリン非依存状態
##プレド
みれ
Ｒａ
##拇
骨壊死
バクトラミン
としまして
##錯
##和ら
ラジオ体操
目線
正常圧
杖歩行
##しい
調べる
血液疾患
##筋層
##膨隆
##こわ
##倒
##午前中
##神経所見
##浸潤性
ヴェノグロブリン
##子宮体
エトポシド
大腿静脈
ＧＴ
多発脳梗塞
機序
人生
##動か
ｓｅｎｓｏｒｙ
##ＮＡ
##車椅子
視床
ｂｉｌａｔｅｒａｌｓｈａｒｐ
##奥
ヘン
ゴルフ
れません
エレベーター
##遺伝子
通学
##持続性
ネオステリングリーン
落とす
ラックス
アルドメット
り尿
##Ｔｕ
ｃｏａｒｓｅｃｒａｃｋｌｅｓ
循環障害
##寄り
##問題
白斑
キー
##感情
楽しん
皆さん
##ｌｙｍｐｈ
叫ぶ
##頭蓋内
ソ
##サージ
症状再燃
##ｘｅ
潜血陽性
ロトリガ
##オプ
終末期
虚血性変化
Ｎｏｂｏｒｉ
睡眠障害なし
##かわ
レン
器具
たし
性鼻炎
##智
賀
１３歳
悪くはない
ミング
ＰＦ
まわり
健康診断
上位
ｓｔｄ
ヒックマン
##扱
施錠
##吻合部
とどめ
スイッチ
組成
ＧＷ
ｍｏｔｉｏｎ
ティー
証明書
ＰＶＥ
持ち帰り
サンリズム
スキン
固まっ
##強い
パウダー
出身
##きつ
たびたび
タリビッド
##ルス
曲線
ｃａｎｃｅｒ
皮膚所見
ウブレチド
ひ
区役所
常食
年内
バニラ
右気胸
メンタル面
##準
炎症改善
症性
##ザー
##ｉｄａ
ｄｅｌｔｏｉｄｅｕｓ
##しゃべ
##待
##小児
促
潰瘍形成
嚢胞性
感音難聴
##基礎
##ギャッ
使
##カッ
コアグチェック
要町
遅発性
アニソコリア
インスリングラルギン
褥瘡部
想像
胃食道逆流症
##Ｂｏｒ
質的
ふれ
ｎｅｕｔｒｏｐｅｎｉａ
##癒合
##平坦
いたみ
炭酸カルシウム
##導
小学生
##葛
Ａｓｐ
##ｌｏｇ
##障害者
前提
##アテ
焼き
腹直筋
##だい
ｂｏｌｕｓ
麺類
摂っ
眉間
グリセリン
合格
ニヨウリヨウ
口数
閉鎖術
目処
##嗅
微
皮膚掻痒感
４歳
##丁
斜視
超低出生体重児
与える
特殊
ｋｕｒ
##砂
銀杏
出そ
##かき
ドン
わりない
##ＤＤ
にこにこ
電位
手指振戦
番目
ｃｉｌｉａｒｙｓｉｇｎ
##ＴＰ
##心窩部
ニューロパチー
拒否感
##院内
##むず
ぜ
乾い
ｍａｒｋｅｒ
ｍａｌｉｇｎａｎｃｙ
##ッチ
平行棒歩行
##衝
シャワー室
かえる
天気
##Ｖａ
##中隔
混ざっ
ＣＴＥＰＨ
ＧＰＡ
##恐
##Ｓｏ
筋トレ
空振り
ｒｈｙｔｈｍ
冷え
用事
暴れ
##つっ
ｕｌ
色調変化
三角巾
重なり
癌術
血栓なし
##勤
##災
レット
##Ｓｔａｐｈｙｌｏｃｏｃｃｕ
坐位保持
８歳
##皮質
ｂｌｅｅｄｉｎｇ
素因
##個人
紅潮
ＬＡＭ
##ｔｒａｎｓ
疼痛時指示
##総胆管
レストラン
尿管癌
気づき
##幹
##ｓｃｈ
モダシン
硫酸塩
臓器障害
エラスターゼ
##延長
ソルビトール
ｄｅｒｍａ
配置
いつか
ふらふらする
Ｄｒｃａｌｌ
４つ
心身
砂糖
##しか
Ａｂｄ
前置胎盤
報
Ｃ型慢性
暑く
アデホスコーワ
ｐｌｔ
先程
##被害
##表面
創感染
ｆａｉｒ
##ピク
Ｇａｉｔ
石鹸洗浄
##ｐａｔ
ＩＤＡ
打
ａｎｄ
##ｈｅａ
敏感
腫再発
０円
セラ
半分以上
ＦＲＳ
くも膜下出血
ばり
便潜血提出
頭蓋内出血
網膜症Ａ
放
利き
外勤
おだやか
##汗
##セー
短腸症候群
##幼
サン
２発
扉
嚥下時痛
まぁまぁ
ｊａｗｊｅｒｋ
ビー
パズル
不整形
##ＲＳ
つかまっ
##Ｄｉｓ
ｓｅｖｅｒｅＭＲ
手掌紅斑
##打
尿瓶
たばこ
ｎｅｃｋｆｌｅｘ
ｂｉｌａｔｅｒａｌｌｙｓｈａｒｐ
##耐性
頭皮
後腹部症状
管状
読め
眼球運動障害
暫定
##白血球
楽に
メマリー
亜急性
##じん
##融
ソフィット
##ｐｉｎ
##Ｎｉ
閉鎖不全
脆弱
##ｓｔａｔｅ
今月
##ｃｌｉ
からだ
部腫瘍
##フェニ
ｃＡｂ
膀胱腫瘍
転倒歴なし
##黙
##液体
##暖
カラヤヘッシブ
ｕＲ
##ザイ
一時期
洗顔
##悩
スーテント
済ませ
ナール
織
##代謝
不慣れ
ＬＴＧ
##ｅｅ
Ｔ字杖歩行
##尿蛋白
再度発熱
##増悪
足関節運動
##医科
##うかが
膵下
マドパー
ＯＰＬＬ
##デン
##抑
白色粘稠痰
##ｕｎｉ
主膵管
気管支拡張
##頸管
閉鎖病棟
ｆｕｎｎｅｌｉｎｇ
##Ｓｉ
ディ
実は
##遣
##絵
ｌｏｍａ
##クリア
##ドレ
恐怖感
セフメタゾール
##変性
##ｒｇ
##京
色素
##ｗｏｒ
守
頸部骨折
感度
生来
##Ｂ型
##心電図
腫症
##ｄｉｆｆｕｓｅ
ワーカー
日中疼痛
虫垂
キャリア
むせる
じゃん
カルベジロール
気持ちいい
摘
##また
アン
##ＥＦ
##ホル
白色痰中等量
##マーキング
スキャン
##掌
窒息
ＷＮＬ
午前１１時
原発性アルド
##ｃｈｅｓｔ
足し
##ｒｅｄ
ダクド
##中枢性
肛
郵送
テンション
ｐｏｓｔＰＣＩ
発表
##スリ
メンタルクリニック
隔経
##エル
ＤＤＫ
##視床
ＭＶ
８２歳
##皮膚トラブル
##セルフケア
胆汁様
４０年
体液貯留傾向
所見なし
##かつ
アゾセミド
擦過
寝つき
利
しわ
周産期
角膜
Ｋｔ
特異的
筋皮弁
##陽性
どころ
３０週
タム
所属
履く
##最終
##発語
##第一
スメア
瀬
ナイロン
くれれ
##ｉｎｖａ
礼
３回目
ｉｎｆｅｃｔｉｏｎ
嘔吐する
ａｎｇｌｅｓｈａｒｐ
##自立
##愚
従う
３０回
便座
たくない
##ｈｅｅ
環軸椎亜脱臼
ＰＡＣ散発
ＳｊＳ
##声門
７階
ＩＮＯＵＴ
トピック
ｓｔａｇｅＩＶａ
##ｂｏｒ
房内
気付か
定か
それに
##Ｆｏ
起居動作
今すぐ
先週末
１カ月
骨棘形成
##緑
骨密度測定
膝関節痛
ａｍｏｕｓｃｅｌｌｃａｒｃｉｎｏｍａ
ラーメン
肛門周囲膿瘍
腹痛くない
頼り
##Ｉｇ
ＥＵ
##スイ
開き
ぐるぐる
主たる
肺アスペルギルス症
##やり
取り組め
軟便少量
低Ｐ血症
##徳
ａｕｒｅｕｓ
乾燥著明
##ウム
テ
鼻漏
##ランス
ｓｈｏｔｓ
##ノル
引っ張っ
融解
タミン
僧帽弁
ｉｎｆ
##ｂｙ
拳
##Ａｒ
長期化
まあまあ
承知
６点
下肢痺れ
グリベック
##オン
受け入れる
Ｂｗ
腎癌
自発
取りこぼし
感冒様症状
##中学
コンビニ
マッチ
ｎａｂＰＴＸ
心がけ
##硝
表層
##チョ
ＩＦＸ
後退
##ＥＧ
アクセス
動脈弓
##必
履歴
かき
トレッドミル
すべり症
##ｓｔｒｏ
ＬＶＥＦ
##穿孔
勤
##勝
方視
浸出液なし
##スパイ
##神経根
ｗｅｌｌ
異常所
伝わっ
##夢
##読
局面
Ｔｉ
##ｆｉｌ
ハーモニー
真菌性
バルン
クトミー
抜き差し
合間
引
ＭＰＡ
##巻
剃り
タンパク
口パク
##アイソ
ｓｍａｌｌ
##円形
ｐｒｏｂｌｅｍ
マン
##ＶＴ
ＬＢ
##Ｂｕ
取り込み
マブ
心筋逸脱酵素
届け
残胃
はずれ
ＡＰＣ
濃染
１月９日
やすかっ
顔色不良
べく
ｔｉ
取ろ
働き
メモリ
喧嘩
異形成
ガー
とらえ
##ｇｅｎｅｒａ
驚い
ｌｄ
ｆｔ
タキソール
##自律神経
血管性
渇い
##所見
初経
ストマ閉鎖
##初回
##ＡＩ
##セパ
引き出し
斜
元来
大うつ病
Ｔｒｉ
##牛
スキー
おち
ＦＶＣ
ベーチェット
パパ
人工鼻
第２子
ｔｉｄ
##おこな
リーダー
所在
８３歳
##大脳
黄色痰
ｄｅｌ
挙がり
一覧表
ＣｏＡ
１４日間
笑う
ｎｏｄｒｏｐｐｉｎｇ
ｆＴ３
はじめて
抗体価
識
散剤
運ぶ
さい
認
ｖｉｓｕａｌｆｉｅｌｄｓ
末期腎不全
社会的
##覚醒
６週
凸
##ション
ペンローズドレーン
##哺乳
つ折り
##窺
##秋
描い
石鹸
拡張障害
##オク
拠
フェロン
つらかっ
症状注意
##ユ
豆腐
体内
ｅｎｃｅ
１年間
##働
##石灰化
電池
ふくらはぎ
好酸球増多
思える
おか
##痂皮
管穿孔
##暮
##研究
遅
逆行性
外腸骨動脈
そういった
##春
##管理
グルテストセンサー
知り合い
なめ
クリンダマイシン
##催
観賞
##鎖
制御
ｄｉｆｆｕｓｅ
心大血管
##限局性
##役
尿細管障害
##可逆
リプル
ｓｔｒｅｐｔｏｃｏｃｃｉ
Ｕｌｔｉｍａｓｔｅｒ
動性
覚醒度
ＩＴ
##ｆｏｌ
##ｕｌａｒ
印
もっとも
##ラック
刻
脊柱管
軽度ふらつき
##ラミ
機能維持
もうい
善
右股関節痛
流さ
##関係
リポバス
２８週
返す
##萎縮
##責
##ドパ
ＰＡｆ
同一
##ｖｏｌｕｍｅ
Ｉｍｐｒｅｓｓｉｏｎ
四肢冷感
下ろし
##ホス
ｇＣｒ
合せ
第１子
##オリ
##Ｖａｌ
ｐｌａｎ
下痢症
ＶＢＧ
ｂａｎｄｉｎｇ
##警
##ウン
易出血性
気管支拡張症
##炎症反応
ｄｉａｒｒｈｅａ
ｌｌｉｎｇ
クモ膜下出血
汎発性
ｂｙｐａｓｓ
一切
Ｓｊｏｇｒｅｎ症候群
ＰＳＣ
##ポジ
ｆｉｌｅ
趾間
ＧＦＲ
床上動作
コメ
胆管結石
褐色細胞腫
のところ
ビダーザ
##心内
脳萎縮
刺入部異常
錐体外路症状
夜間排便なし
##チューブ
##認知症
原液
腹部症状注意
芸
##産褥
アミラーゼ
狭窄病変
割り
やす
ｄｙ
無意識
##破裂
##スキ
後腹痛
マシ
出ません
##左内
ハーフジゴキシン
設ける
ティア
胆嚢管
出血持続
脊髄炎
臀部痛
他動
パートナー
陷凹
亜鉛
出せる
規則
ケット
強まっ
ｏｓｔ
##補体
賦活
ープ
ｆｅｅｄｉｎｇ
もつ
ｔｅｌ
##もた
心房粗動
下行結腸癌
##火
保菌
##比
オキサロール
かー
##テイ
##ｃｅｄ
Ｓｔａｎｄｉｎｇ
##腓
分化型
ｂａｎｄ
かろうじて
##鈍
ｐｉｎｅ
頭部打撲
##ＲＢ
##Ｔｒｏ
一杯
理学療法士
打た
うっ
ＲＴＸ
脛
内膜症性
##フォス
やけ
ｐｒｏａｃｈ
左目
煮
##Ｃｈｅ
Ｃ型肝硬変
ＭＣＴＤ
不眠時頓用
ｓｕｍｍａｒｙ
##比較的
愁訴
披裂
ｐａｌｐｅｂｒａｌｆｉｓｓｕｒｅ
切ら
いれる
彎曲
##処置
##拾
右手首
病前性格
##ｔｉｎｇ
ｖｅｒｔｉｇｏ
##ダイ
##孤
##ｒｅｃ
欠
すら
あわ
越える
取り入れ
キシン
##本態性
##隠
ュ
糖分
ｐｕｐｉｌ
メタゾン
喜ん
##クモ
抗血栓
コウタイ
##音声
ファスティック
あてる
表面膿
##紛
左房拡大
ｏｒｙ
空く
ふらっと
血球貪食
ｍｇｐｏｂｉｄ
##右卵巣
横向き
口腔内吸引
右片麻痺
２倍
ミオクローヌス
息切れあり
ＡＤＭ
上腕二頭筋
ｓｉｄｅ
##ｍｅｎｔ
召し上がっ
ミコシスト
部分的
バイト
義母
ｓｐｏ
信頼
##デルモ
小型
不信感
れず
##亡
##汲
満感軽度
##ｋｉｎｅ
ｖｉｔａｌｓｉｇｎｓｓｔａｂｌｅ
##ＤＶＴ
ステプティ
育て
##側頭
リオレサール
日中発熱
留め
再発予防
##カイ
ワンタッチ
##テラ
嘔気軽度
て出
無尿
感染コントロール
包括
慢性心不全急性
はずす
時覚醒
リンパ管症
破損
ドセタキセル
６週間
肺音クリア
呂律不良
左手首
不機嫌
失明
##神経性
ｆｕｒｏｓｅｍｉｄｅ
リラックス
##ＤＯＢ
##肝腎機能
##次回
低下なし
##焦
痰詰まり
変化なし
ｄｉｚｚｉｎｅｓｓ
##体液
##ヌ
##伺
##ｕｔｅｒ
##ｎａｓ
##落ち着か
##口渇
臀部発赤
##術前
ｃｏｎｓｔｉｐａｔｉｏｎ
ｕｎｄ
##ｆｌ
##技
排尿排便障害
使用可能
優しく
ＧＤＳ
ナプキン
##でき
肝移植後
メトロ
ｓｅｐｔｉｃｓｈｏｃｋ
ＧＮ
##Ｂａｃ
６年前
##痙性
ボリューム
間質影
殿部
ＵＤ
拒絶反応
尿中肺炎
##Ｓｔｅ
過延長
##硬結
小脳梗塞
腹部違和感
##換気
胃腸
病衣
水分出納
Ｓ状結腸癌術
すべり
##ＨＯ
##ｔｈｉ
ｍｉｄ
ＶＯ
経営
万円
左側腹部痛
結
スキップ可
ループ
ｎｏｃｈａｎｇｅ
ｓＡｇ
##仲
ＩｎｖｏｌｕｎｔａｒｙＭｏｖｅｍｅｎｔ
##測定
##膀胱子宮
エポプロステノール
そっち
先月
和らぐ
骨腫瘍
ｌｏｇｙ
触知良好
##網状
カニュラ
学会
梅干し
僧帽筋
##ＩＵ
湿潤環境
主婦
Ｄｏｕｇｌａｓ
リンパ球浸潤
##院
ＩＵＩ
##ｆｕｎ
##職
ｓｙｎｄ
ｐｐｍ
アデムパス
ＤＯＲＶ
ｓｍｏｏｔｈａｎｄｆｕｌｌ
ａｄｄ
ＮＩＲＳ
相性
レスタミンコーワ
ＦＯＬＦＩＲＩＮＯＸ
くなり
腎結石
踏ん
出血拡大
##すご
充満
セ
ＥＬ
盤
ｓｃａｌｅ
研究所
スクリュー
##筋肉
付か
連続性
##キン
粒状
感染制御
づらさ
一晩
胸部大動脈瘤
##皮下気腫
ＦＢＳ
ｃｌｉｐｐｉｎｇ
急性虫垂炎
ＲＹ
##以
振っ
自己抗体
##ょ
##昨夜
手足症候群
##オペ
##ｅｔ
##お姉
陰影なし
サーティカン
##ドブ
部分切除術
アート
##肝門部
印刷
##マンモ
脾梗塞
##胸椎
##診療
##２次
断続
下位
##ｉｌｅ
絡まっ
腓腹部圧痛
ＫＥＥＰ
##突然
妊婦
確保困難
Ｎ０Ｍ０
タノール
性潰瘍
##ｋｉ
##ｎａｒ
歩行問題なし
高Ｎａ血症
苦し
##スー
ｚｅｐａｍ
ｏｏｄ
委員会
ｐａｌａｔａｌｒｅｆｌｅｘ
##ウイ
##半夏
っか
##ＥＮ
##ｃｏｍｐｌｅ
送付
##右内
トイレ歩行可
##城
習
長距離歩行
Ｓｔａｐｈｙｌｏｃｏｃｃｕｓ
攣縮
顔貌
##苔
ＰＩＶＫＡＩＩ
微小
ｖｉｓｕａｌａｃｕｉｔｙ
##すく
随分
発作性
ジフルカン
両者
教
こわい
見当たら
誤っ
ツイン
すっ
##硝子体
##ソフ
##熟
私たち
##ａｂｎｏｒｍａｌ
##ｕｇｈ
差し込み
つづい
ミケラン
心停止
脳性麻痺
ＡＫ
凍結胚
ＢＳＩ
##右耳
##ｃｔｉｏｎａｌ
##アップ
出来事
仙腸関節
##ファンギ
全身状態不良
Ｓｆ
流涎
##肥満
半身
のう
チル
みなさん
##つっぱ
ごめんなさいね
ロドピン
落
ｍｕｃｏｓａ
##穿
天
##救急
##コンタ
断端陽性
ｐｏｏｌｉｎｇ
側彎症
ｎｄｌｉｎｅ
腟内
左耳下腺
##甘
断続的
##狙
##ｆｆ
##起き
ｓＡｂ
れやすい
Ｋｅｅｐ
##複雑
##意思
ｔｒｉ
##鼠径部
##投げ
膿瘍腔
看護婦
長年
##抑制
貯血
ｈｙｐｅｒａｌｇｅｓｉａ
異なり
留
生体弁
##故
##剥離
気道狭窄
##ｂａｃｔｅｒ
不穏行動
だろう
##成長
自律神経障害
創部確認
##左心
##椎間
##破壊
ドライアイ
##チェック
##離握手
９歳
##ｂｅｄ
汁物
２次
##ゲン
取り扱い
内容物
あらかじめ
##最大
技術
ｖｅｉｎ
調律
ベス
精神病症状
安静時痛
埋め込み
邪魔
カトレップパップ
入眠状況
分娩歴
##ｌｉｎ
ミカムロ
強けれ
吸着
４日目
肺尖
右目
骨化症
ホルター
安静時疼痛
##パント
##ｒｅｎａｌ
##臭
##坐
##起床時
##リハビリ
##紡錘
ｓｃｌｅａｒ
イントラ
##Ａｏｒ
傾く
##粒
片脚
##ｃｏｌｏｎ
ｐａｔｅｎｔ
小腸穿孔
ひと
ガーグル
ラボナール
ｎｏｒｅｍａｒｋａｂｌｅｃｈａｎｇｅ
##Ｓｔ
テステープ
血流障害
胸部不快なし
望ましく
骨髄異形成
臼歯
##よろ
##込み
ＳＵ
##アボル
##鬱血
綺麗
Ｐｒｏｔｅｉｎ
苦痛様
##ＮＧ
タール
##ラジ
２９週
上り
繊維
後鼻漏
プッシュ
攻撃
おう
##自己喀痰
パンビタン
##もと
知れ
味覚異常
挙がっ
アニソコ
##達
中心静脈
##っぽ
異常無し
経つ
患側
##濾胞
いくらか
不足分
ｇｌｕｔｅｕｓｍａｘｉｍｕｓ
##下垂体
結膜炎
##驚
中毒疹
フォーク
##矢
非典型的
##ｂｕｒ
##につ
後呼吸
後期
##Ｓｔｏ
##むく
強膜炎
疼痛時頓用
従命入
軟部陰影
子宮頚部
部分切除
ｎｅｒ
にくかっ
##ガイ
##蒸
レール
ｄｅｒｍｉｄｉｓ
##前縦隔
##スケ
##アスピ
膜性腎症
##以前
##ｉｎｆ
伸ばす
泣く
##ＩＤ
長め
Ｔｄａｙ
ｓｉｔｙ
ＶＣＡ
確率
リマプロストアルファデクス
##入院
##ｍａｘ
尿毒症
シャンプー
背面
両目
Ｃｈｅｍｏ
痛性
##第２
##ｓｏｐｈａ
パスタ
クレアチニン
次週
##虫垂
肺臓炎
##Ｅｍ
多発脳転移
締め
##動揺
終夜脳波
ｌｉｔｉｓ
婚
感情障害
いて
##巡
かぶっ
ｗａｖｅ
挙上
むかつき
##美容
解析
##ポテ
同上
息苦しく
アスパラカリウム
##平滑
付き合い
ピックアップ歩行
ｔｉｎｇ
##盛り
匂い
##幻
##ａｒｉ
従い
誤答
ＨＩ
おもちゃ
##拒
ＴＯＦ
ウォーキング
供覧
グレープフルーツ
セミ
象
膵頭十二指腸切除術
ブレス
くし
自然経過
夜間眠れ
##中間
アルコール依存症
同月
ｖａｔｉｏｎ
下肢静脈瘤
##酸素
想い
##ｓｃｉ
ワンアルファ
軟らかく
頸部リンパ節腫脹
##ｂｅｒ
口蓋扁桃
ポール
##ｌａｔｅｒａｌ
右下肢痛
##ＣＮ
ＧＬＵ
再開指示
０分
腹いっぱい
段脈
レグパラ
バスタチン
再来週
ｋｇｑ
細胞癌
##形態
サイクリン
##乳突
レスピマット
亜脱臼
Ｖａｓｃｕｌａｔｕｒｅ
皮下腫瘤
##クリス
##ケト
肺腫瘍
受講
腫瘍生検
##赤芽球
##簡
ポンタール
ｓｅｎｓｉｔｉｖｅ
##ポラ
生協
慢性糸球体腎炎
##ｄｒａｉｎ
##振る
##覆
節骨
だれ
冷汗なし
吸う
##酵素
カルジオリピン
ｍｉｎａｔｉｏｎ
奇形腫
器械
##交感
##房
全員
ｓｎｏｒｍａｌ
##射
ｐｒｅ
##結核
単結紮
静脈洞
交介
軸偏位
急性腎障害
##ｆｒｅｅ
却
ｉｌｉｏｐｓｏａｓ
##なか
##健康
心膜炎
ｇｏｏ
制度
ひきつづき
乗り
##風邪
##微熱
副作用説明済み
##ｈａｒ
##均
サー
##尖部
##ＤＥ
##ジェネ
##テガ
役所
##瞬
下熱
##ツルゴール
##違和
四肢動
せんべい
坐骨神経痛
ＤＥＳ
##献
##ｗｈｉｔｉ
##精神運動
##その
吸引器
軟部腫瘍
##概
信じ
濃厚
##ＲＣＡ
リル
副雑音なし
##ｇｅｎｉ
##疼痛時
とめ
渇く
##鳴
つかれ
##築
##数回
##海綿
マクドナルド
中央部
ｌｉｓ
##母子
訪
ＧＭＯ
ｓｔｒｅｓｓ
##メント
左片麻痺
軽症
減弱なし
通訳
折り紙
パタノール
ぽ
変わん
ｓｔｏｎｅ
うるさく
股関節痛
##Ｃｈｅｓｔ
よし
発覚
##ｎｅｒ
立ち上がろ
ＤＢＥ
変容
同士
##脱落
ＬＦＳ
##ｂａｓ
ストロー
１日目
苦しかっ
##ひと
腱反射亢進
造血
変性症
マイスタン
聴神経腫瘍
ミダゾラム
くしゃみ
宿
自家
##末梢冷
##ｌｏｏ
増す
##灰
後嘔吐
閉経
に従って
ンス
##中等度
身体的拘束
機能不全
腎移植
ソン
##滞
##ストレ
##カテコラミン
しかめ
溶け
拍
注意必要
##レプ
軟菜
ジェネレーター
強力
エックスフォージ
ｕＢＭＴｄａｙ
浸出少量
Ｔ異常
睡
##トライ
培陰
ｒｅａｃｔｉｖｅ
ＬＬ
停滞
ジスキネジア
ドック
ステリー
##くっ
胸部聴診
食道閉鎖
努力様呼吸
しま
イス
##充
こち
出血トラブル
褥瘡リスク高い
刺す
廓清
伝言
はない
どうせ
体動困難
着い
ペ
ＮＶＤ
転倒後
Ｖａｌｖｅｓ
##遊
ウーゴ
梗塞後
ＩＶＵＳ
噴門形成
##仕事
##フラン
構築
##右鼡径
ども
極少
ｈｙｐｏｋｉｎｅｓｉｓ
聞き取れ
概要
少々
感情失禁
線維性
余命
##鼻咽腔
ａｎｇｌｅ
コア
##Ｂｏ
##杖
手動
再発性
##ｍｍａ
につれ
ＣＶ感染
寂し
苦労
##ａｌｌｏ
むくん
ａｓ
関節症状
ナス
掴まり
##ｓｔｒｅ
Ｌｍｍｏｌ
##ウス
来れる
無視
ｃｏｃｃｉ
胸部不快
##若干
##ｃｒ
##眼内
エット
てい
レルベア
腹膜癌
走る
にたいして
Ｄｅｅｐ
セフゾン
##Ｇｌｕ
そっか
##テレ
気づか
メトホルミン
##イレ
対称
ｍｏｄｅ
ｌａ
入り口
ハイドロ
##ｅｆ
神経ブロック
右頸部郭清
##吸い
##口角
##小指
##ｈｅｐａ
グラム染色
##ｒｅｆｉ
##食思
##考え
腹部膨隆
結腸切除術
##ｃｔｉ
##ろう
ｏｕｓ
##とど
様式
宛
絹糸
白濁
をもって
##介
##ｍｏｉｄ
トラキマスク
##下咽頭
ＣＬＤ
##Ｎｅｕｒｏ
区別
##約
ＤＯ
６歳
郎
プロジフ
直腸Ｒｂ
ピロリ菌
不安障害
##背側
##ＣＲ
強ミノ
無難
##ｎｏｔｉｎ
ｍｅｎ
##家族性
同じく
ｐｎｅｕｍｏｎｉａ
##横浜
エビスタ
骨棘
##問い
大静脈
ＥＳ
##ｄｏｎ
ふらつきはない
白色血栓
フローラン
カ所
##内反
ＳＭＩ
##里
マリン
抗痙攣
血管肉腫
##ポリペ
##商
はいい
厳重
教室へ
##民
降りる
##いう
赤肌
白く
任せる
##大き
##営
##いら
##緑色
糞便
##臼
##染色体
Ｇｅｍ
##衰
ｐｈａｒｙｎｇｅａｌｒｅｆｌｅｘ
スーグラ
１０万
浮遊感
##越
眼内炎
##ノー
##排ガス
腹水細胞診
肌
胆管空腸吻合部
呼吸循環
リス
込め
かんじ
食道造影
サンドイッチ
届
Ｃｌｅａｒ
勢
うつ症状
整
ｃＳｔａｇｅＩ
コンサルテーション
左下肢痛
２段脈
ジー
皿
##環
行お
９回
大きかっ
##のぞ
シリコン
手先
##リネ
ドプス
##焼き
##つな
##ｏｆｆ
発話
##完
緒
##加齢
Ｂｅ
瓶
##ｆｌａｔ
僅かに
Ｅｎｅｒｇｙ
ヴォリブリス
ＫＣｌ
側面像
腹部膨隆なし
呼吸停止
##ケモ
ｅｒｓｏｎ
ペーパー
Ａｉｖ
爪切り
##Ｓｉｇ
##脱臼
口頭指示
いー
##浅草
ＭＯ
##いか
##Ｎｏｒｍａｌ
紫斑病
移動困難
側弯症
##痰が
##離脱
##中央
たえ
したがって
プリンク
ｔａｐｅｒｉｎｇ
ｄａｙｄｉｖ
##瘻孔
ｊｐ
話せる
ときおり
リンパ性
レスピア
障害なし
ｓｈｏｃｋ
##消化
大動脈石灰化
##鼠経
こい
##鼻汁
本体
痰がらみあり
##ｌｉｇ
##ｎｅｓｓ
腹筋
短距離
嫌がっ
##鹿
##海外
##Ｐｉ
##免
やむを得ない
ｂｅｒ
抗不安
ＫＤ
##ｓｏｌｉ
少量排便
ガーゼ圧迫
ディナゲスト
念慮
條
適合
##論
##ｐａｃ
ｋｕｐ
##茨
２種類
神経性やせ症
肝腫瘍
##くり
藤
紫色
##パーソナリ
ティーエス
拝察
##結婚
欲求
動なし
まいり
##かっ
ｄｉｓ
ｖｅｄ
##ｓｅｃｏｎ
フォーム
##尻
便少量
形成不全
##紅
草
雨
Ｐｄａｙ
スワブ
前胸部痛
解放
備考
ウェイ
##クー
大気
ＯＰＣＡ
ｉｍｐｏｓｓｉｂｌｅ
##ＳＳ
電子
腸蠕動亢進
嘔気継続
引っ張る
##触知
##ｇｌａ
ＴＪ
還納
##マジ
##前方
##飼
大型
づける
##カラ
##ｓｔａｎ
##っぱ
ネームシール
##布
Ｎｒｃａｌｌ
閉腹
２０代
もしも
これだけ
ＶｉｔａｌＳｔａｂｌｅ
入居
ＷＴ
##裏
##Ｓｅｒｏ
物質
外さ
ただれ
##濡
にわたり
アイスクリーム
抗凝固剤
##ｃｏｎｔａ
過ぎる
バギー
ｓｕｒｇｉｃａｌｓｃａｒ
していた
Ｍｅｄ
屈伸
とどまる
##ＳＮ
つめ
鼠径ヘルニア
##腹直
ＡＣＲ
川崎病
##怠
##ｅｒｏ
稀
吸痰
超過
フリーハンド
申し込み
つまっ
##慈
腸ガス
##です
ｃｌ
終える
ＣＹＦＲＡ
##イノ
中学生
炎所見
沫
滞在
##ネル
##イス
ｚｕｍａｂ
グラナテック
片足
輪筋
浄化
降下
##ＩＰＩ
アロキシ
ＢＴｓｈｕｎｔ
##察
##Ｕｔ
母子
##納
ＣＭＶ感染
##トイレ歩行
潜在的状態
た分
ような感じ
ａｐｐｅｔｉｔｅｇｏｏｄ
休める
救急隊
安定剤
苦笑
行なえ
腰椎椎間板ヘルニア
大食
##濃度
ｚａｐｉｎｅ
趾足
##Ｓｔｒｅｐｔｏ
##ｃｌ
##後縦
##左耳
トリクロリールシロップ
持ち上げ
##右前腕
ｍＬｘ
Ｐｓｅｕｄｏｍｏｎａｓａｅｒｕｇｉｎｏｓａ
周囲膿瘍
ＢＩ
趾潰瘍
ｃＳｔａｇｅＩＩ
白色痰少量
##リハビリテーション
圧痕性
完遂
加味
転倒リスク高く
##遂
##リオ
肝腫大
送
便潜血陰性
##ＥＲ
トイレ覚醒
腹部状態
##ｗａｒ
##草
ルーメン
##爆
##休み
##ｂａｓｅ
チエナム
##自由
測り
##祝
##絨毛
多用
歩行練習
残さ
##体位
数年
大血管障害
粘液便
##挿
ホスミシン
依存性
はごく
ｄＬＡ
タケルダ
形状
血栓変動
ｚｅ
しません
ｓＣｒ
ＬＵ
籍
リザベン
起き上がれ
##ｓｓｅ
骨移植
ニューモシスチス
脳挫傷
##ｄｉｆｆｅｒｅｎｔｉ
最悪
生え
評価不能
##施行
有料老人ホーム
##ビア
##願
##Ｓｅｐ
ＰＳＧ
繋がる
残枝
##両手
骨髄浸潤
血小板減少症
ギプス
##胆
感受性結果
##幾
##集中
ＭｇＫ
##罪
自尿確認
ＲＯＳ
Ａｐ
##ｌｅｆ
トピナ
ｒａｙ
体質
タミフル
接
##ラス
ｔｉｎｎｉｔｕｓ
##ｄｒｕ
同等
中程度
##済
肝脾腫
漢方薬
ｓｍａｌｌａｍｏｕｎｔ
固執
キノン
##ｄｉｒｅ
##モン
洞性頻脈
##ｖｅｒｅ
##気管内
隙間
流動食摂取
取り出し
頸部リンパ節腫脹なし
##ｆｕｌｌ
##鎮痛
ナトリックス
##Ｇｏ
語る
##ａｎｇ
ｐｙｌｏｒｉ
状態不安定
炎後
声門閉鎖
##下血
##寺
##ペプ
ｎｅａ
異
ＰＡＳ
総肺静脈
チド
Ｃｅｔ
##ョ
ＬＮ転移
##湧
##中枢
##二次
##機嫌
##腸間膜
##板状
##ふらつ
もって
##上部
ＰｒｏｂｌｅｍＬｉｓｔｓ
棒
腸骨静脈
ｍｉｄｌｉｎｅ
##水平
##ｃｕｓ
##Ｏｐ
傷口
##ＩＢＷ
##女性
主菜
シス
細胞外液
側弯
ハーセプチン
癖
洋服
##ぼんやり
治まら
##ベト
ｓｈｏｒｔｓｕｍｍａｒｙ
##ＳＨ
##影
##耐
##ＢＷ
宜しい
ＮＰ
ゃ
##培
##リング
##ｍａｒ
ＵＲ
がえ
輸注
##２型
##ＧＥ
ＰＳＡ高値
惹起
##委
肺血管陰影
粘稠痰中等量
ロペミンカプセル
##ぺ
##ＰＨ
ｔｉｏｎｓ
足病変
足背浮腫
ホスレノール
集積低下
左股関節痛
綿棒
トラベルミン
境界不明瞭
##舐
##溢
臍帯
んでいる
セント
##季肋
血色
ＢＬ
ＵＬ
自室内
決断
##式
しき
ありか
##んだ
頷い
ｄｕｃｔｉｏｎ
肺鬱血
等し
みかん
随
趾症
テンピュール
##ｊｕ
##梨状
ＷＰＷ
##寛
構成
なれる
##Ｂｕｒ
迅速病理
前頭
Ｄｉｖ
両側変形性
カテーテルアブレーション
三女
１期
ｌｉｎｇ
##浸
疼痛時１錠
##視神経
##Ｓｙｎ
頚椎症
##ａｌａ
##泣
褥瘡発生リスク
仙骨部褥瘡
ネーム
ｄｒｏｍｅ
ｖｅｎｔ
ｉｃ
偽膜性
キン
記事
いまだ
利き手
ＮｏＧｒｏｗｔｈ
##ｆｅｅｄｉｎｇ
##起こ
核小体
頸管
分かん
体重増加不良
強直性
ならない
結石症
継続的
もやもや
ｏｎｓｅｔ
そのうち
##憩室
##外腸骨
起居
テーション
消費
##ｐｏｒ
##ｓｔｅｒｏｉｄ
気管内採痰
Ｓｎｏｕｔ
ラック
くさい
重複
移乗可能
対麻痺
ｉＰＴＨ
喜ば
リドメックス
手渡す
##浸出液
造血幹細胞移植
ＵＶｐＨ
##左肺下葉
小細胞肺癌
押下
##ｐｈｅ
気切後
潜在的リスク
ちに
##Ｈｏｆｆ
ーション
##ｋａ
##刺激
安全性
##リエゾン
##キュー
##痙
下回る
右腎癌
へん
不明言動なし
ドライ
締め付け
##ペー
ＳｉＰＡＰ
昇圧症状
２５枚
##緑膿
いらっしゃい
##カリ
一連
難しかっ
##留置
告
##ｓｉｎｇ
Ｋｌｅｂｓｉｅｌｌａｐｎｅｕｍｏｎｉａｅ
##ｄｏｕｂｌｅ
しびれあり
刺入部疼痛
大腸憩室
易感染性
##浦
炎症性変化
開口障害
##押
##膨ら
##レボ
叩い
皮膚異常
##大網
カート
ＣＥＡ高値
ありがと
待て
食い
キシロカインビスカス
ｂｉｎｅ
ＣＲＥ
ＶＰＣ
しかめる
重湯
##ぜん
げっぷ
Ｔｏｔａｌ
振り返る
改め
腟部
##致
嚢内
##ｃＳｔａｇｅＩＩＩ
移乗動作練習
頭頸部リンパ節
##ｐｏｏｒ
ｆｕｌｌｄｏｓｅ
脳梁
スムース
毎日排便
眠れない
##髄内
有害症状
遺伝
カソデックス
寿
##識
##パイ
力障害
Ｖｏｌｕｍｅ
##起床
末端
水平
マイコプラズマ
歩行介助
ＲＤＳ
後膵炎
荒れ
腹部創
冷静
ａｌｌｅｒｇｉｃｒｈｉｎｉｔｉｓ
人工弁
腟壁
貸し
##ｓｓｉｏｎ
ｒｅｇ
イト
摂取不足
むかむか
ＦＤＬ
ナゾネックス
##授
##レシ
プラット
地震
頚静脈怒張
##開腹
##頚管
渇き
貯留傾向
ｐｙ
##ノイ
##ｒａｔｅ
Ｖｏｌ
ｓｔｏｏｌ
##凍結
左頸部郭清
Ｔ杖歩行
将来的
ひどかっ
##ｃｕｌ
パントール
性皮膚炎
##ｆｉｃｉ
一本
##分娩
##ｍｅｔｈ
全面
ｇｅｎｅｓ
湿布貼付
##Ｃｉ
趾切断
##ａｎｇｉ
眺め
##ｍｅａｎ
##吃逆
##あや
加わっ
シャワー浴許可
目覚め
##自家
後ほど
血圧計
菓子
変色
保険医療機関
がたい
粘性
ちょう
疑わしく
ＶＳｓｔａｂｌｅ
##新生
ＩｇＨ
##シェ
ベンゾジアゼピン
##ｇｏ
腹痛く
ｃＮ
##ＴＯ
##付け
##ｐｅａｒａｎｃｅ
##会話
装用
ハンテイ
##塗
中大脳動脈
ｃｌｏｖｉｒ
##今後
２年間
##肝内
##ｌｏｎ
##酔
##ＳＧ
すごす
当番医
##ｃｋｅ
亜
##ｍｉｎａｌ
フェニトイン
相対的
書き物
水様
転倒防止
７点
ｅｌ
##亀
##鉛
##舞
あまりに
血胸
フラフラ
サークル
６枚
写真撮影
ｂｉｌａｔｅｒａｌｌｙ
咽頭違和感
##電話
蠕動痛
歩行状態観察
自覚症状ない
判然
ｃｐ
ＢｒｉｎｋｍａｎＩｎｄｅｘ
トラバタンズ
系列
民
##ングリ
沿う
痰多量
腎瘻造設
##浸出
太い
折れ
##ｓｓｉ
ｐｒｏｔｅｉｎ
露
ａｕｔｏ
##楔
##臥
##ｅｒｇｙ
定的
ｃｏｌｏｎ
５日目
ステ
紅皮症
##ｃｅｒ
##自尿
##ＭＶ
気力
##ＥＴ
##ニュ
との御
##ついて
活性化
胆嚢ポリープ
払い
##柔
ルビシン
レータ
蛇行
出血痕
増多症
Ｔｇ
シフロール
９０分
リファジン
カム
##ｃｔａ
##帰室時
Ｍａｘ
溶かし
排液流出
夜分
##ｒａｐ
胸部絞扼感
硬麻
ニボー
軽度倦怠感
##かさ
##ｃｏａ
依存状態
マイザー
左後頭葉
皮下貯留
セイ
音なし
プレス
##臓
##不快
ｂｅ
##目立
##ｔｅｌ
##ビリ
##ｓｙｎ
静脈血
ニジピン
ドレン
##かみ
##ｏｐｌａ
リン酸塩
##口内
##事務
##踏み
おしゃべり
復唱
肛門科
##示
循環変動
直ちに
間違える
流暢
多発動脈炎
関係性
大胸筋
ＳｔａｇｅＩＡ
近接
動脈血ガス
##撮影
さり
深さ
左下腹部痛
ｇｒａｍ
腹部膨満軽度
別記
##内臓
おかけいたし
なおす
物品記銘
##スル
かす
##カーテン
##ａｇｅ
症なし
指屈曲
抗結核
失行
分泌物
下肢ｅｄｅｍａ
前啼泣
昼夜逆転傾向
レニン
腺筋症
ＴＡＶＩ
##ｅｌｏ
明治
##膵体
##高位
１９９１年
コウカクコウタイ
ｄｏｒｓａｌｉｓｐａｅｄｉｓ
ｅｔｃ
きき
付属
歩行状態確認
肝機能低下
準じる
ｃｕｌｔｕｒｅ
ｐＣＡＢＧ
性膀胱炎
##ｄｅｘ
傾き
ｎｅｃｋｅｘｔ
太っ
料金
処
挟み
月齢
ＢＭ
##過敏
ｍｅｒ
列
ＧＬＰ
待った
軽度頭痛
貰っ
##須
##Ｇａ
ｓＡ
あえて
含ん
長引く
タンボコール
##ｌｉｐｉ
##ＷＩ
共同偏視
肝内結石
Ｒｂ
あたる
付加
心雑音聴取せず
水晶体
Ｅｎｔｅｒｏｂａｃｔｅｒｉａｃｅａｅ
##飯
##ｏｂ
##貫
文庫
##支援
走っ
Ｒｅｃｏｍｍｅｎｄａｔｉｏｎｓ
ｉｎｖｏｌｕｎｔａｒｙｍｏｖｅｍｅｎｔ
術前
みせ
##ＡＳ
神経質
宛て
摂る
天疱瘡
覚える
衣類
##ばた
在庫
大脳白質
浮かべ
小声
##違
##たん
両上肢抑制
##団
ひざ
貧血改善
##ｆｔ
半抜鉤
##Ｆｌｅ
鶏卵
膀胱粘膜
廃用性
##作り
レビー小体型
存
##ｍｅｎｉｎｇｉ
傷害
ピ
突筋
##失調
Ｄ４
ている
おこし
ＴＦ
抵抗感
なるか
ＳｔａｇｅＩＩＩＡ
ロー
##あい
##純
リンパ管
耐糖能
性ＩＱ
伺える
##して
ＣＣ再発
タール便
ｓｔｌｉｎｅＣＤＤＰ
##ＥＯＭ
１５年
##ｄｒｙ
エビ
##卵円
ｔｕｘｉｍａｂ
れない
##処方
開封
##ｎｅｃｋ
ｍａｉｎ
人工心肺
##及ぼ
リーゼ
頚管長
ｏｂｓｅｒｖｅ
ｓｓｉｏｎ
##ｅｒｇ
##責任
##江戸川
##ラパ
とめる
Ａｐｇａｒｓｃｏｒｅ
##固定
##ＥＧＦＲ
Ｄｉｓ
##夫
##ピロ
左腎癌
何にも
ｃｌａｓｓＶ
子宮癌
違法
開創
交じり
頻脈傾向
ｏｕｔｐｕｔ
##無理
既存
今一つ
貧血精査
触
##Ｉｌｉ
来たす
##聴覚
プリント
アルカローシス
##イソ
撃
痰吸引
安静制限
右不全
だけど
あやし
船
冠動脈疾患
誤嚥リスク
グロビン
宿題
##芽
##グラフト
散髪
側彎
##空腸
ミトコン
##因性
クリーゼ
エトドラク
Ｃｘｌ
##あたた
アクアチム
##炎症所見
うっ滞
大腸内視鏡
ｍｙ
ｗｉｒｅ
プラー
##隆起
とく
終わら
##やわら
ｓｅｓ
##分枝
##エネ
局所的
つよく
ｓｔａｎｄ
圧較差
地域包括支援センター
盛
##足が
Ｃｏａｇｕｌａｔｉｏｎ
突
ｍＶ
##ルバ
中心静脈栄養
##今回
Ｗａｒｔｅｎｂｅｒｇ
血餅
##カフェ
かえって
備
##前回
おいしかっ
##ＰＩＰ
##まず
##適応
アンテベートローション
##編
腎機能悪
帯状疱疹後
複合
絞っ
##ｌｅｕ
##魚
##ｒｄｌｉｎｅ
Ｒｉｎｎｅ
ＬＺＤ
もらえれ
ｍａｓｋ
プロス
前々回
##バリ
ＦＩＯ
ふ
ｓｔａｇｅＩＩＡ
覆わ
ＴＮ
タント
##イー
##ｓｉｌ
ｃａｎ
疱
##廃
ガスリー
##サイトメガ
精子
ワンタキソテール
右肩痛
##ｃｏｎｊｕｎｃｔｉ
ｔｉｂｉａｌｉｓｐｏｓｔｅｒｉｏｒ
問わ
##ＮＩ
##Ｐａ
##肩甲
##アデノ
うかがえる
##Ｔｒｉ
想
尖足
ｂｌａｓｔｏｍａ
せき
反射惹起
##嚢腫
マグネシウム
転院搬送
揺れ
##前庭
ホテル
ロペラミド
異なっ
記憶障害
##メンタ
巻く
ｖｏｌｅｍｉａ
##関節可動域
脳皮質
脂質代謝
段々
##ｉｎｔａ
##危惧
##放射
安心感
もた
認知力
リチウム
##リコ
##なる
推察
Ｂｅｎｔａｌｌ
##末梢静脈
ょ
ぺ
クレンメ
ファイル
まことに
数個
覚醒状況
ハード
午前３時
突然死
汚い
サムチ
##ｐｏｓ
創離開
チャレンジ
ｌａｔｅｒａｌ
白内障術後
走
##瀉
回腸末端
##股
ｔｈａｗ
腰椎麻酔
##１００
ホスピス
ｎｓ
##ｓｐｏｎ
血性混じり
##Ｌｕｎｇｆｉｅｌ
記念
真珠腫
##ｔｒａｃｅ
頭痛等
検体採取
じり
筋肉腫
心筋障害
舌根沈下
ｍｓ
##ｃｔｉｖｅ
##ａｎｉ
不同
リストカット
熱感軽度
ワントラム
ｗａｒｍ
ｓｃｌｅｒｏｓｉｓ
ＵＫＡ
毎月
上述
時折湿性咳嗽
ｓｔａｔｅ
##食い
ｍｏｔｏｒ
たた
住
１１歳
１時間前
横這い
ＮＧｔｕｂｅ
ＡＰＬ
葛根湯
他界
##コーディ
末梢血幹細胞
平滑
悪口
ビリ
##震
##外陰部
エイゾプト
##ＰＲＯＭ
ンカプセル
凝血塊
腺腫様
##形質
ｆｃ
ｐｅａｒａｎｃｅ
ひき
神経学的異常所見
##香
猫
久
急性硬膜下
##ｉｎｔｅｒｍｅｄｉ
彼女
##原発
##ｇｅｎｅ
開く
##タイム
ゲムシタビン
ｈｉｇｈｆｌｏｗ
ｓｉｇ
##固形
##縫合
みなし
##客
##わざ
##ｅｃｈｏｉ
##パット
##尿中
食残
僧帽弁閉鎖不全症
##船
##ＳＡ
夜間危険
ｄａｔｅ
##村
##ぁ
呼吸音減弱
頑張ろ
##ｕｎｔ
終末
##今月
ラーゼ
##下肺野
ラール
リンパ節廓清
不順
##ＢＧ
ｓｙｓｔｏｌｉｃｍｕｒｍｕｒ
##円錐
##疎通
症候
転倒時
##載
捕食
彼
デスモプレシン
腎皮質
##全般
キンダベート
ジューシオ
抜か
ッツ
ぇ
舌下錠
Ｈｙｐｏ
菜
インターネット
肺扁平上皮
腰椎症
##悪寒
ｏｃｙｔｅｓ
開放病棟
##鎮静
傷つけ
既感染パターン
##忙
交
硬膜炎
通る
ＢＴｍａｘ
テルネリン
圧痛軽度
ｄｅｓａｔｕｒａｔｉｏｎ
ソワソワ
卒業後
右肺尖
ＮｒＣａｌｌ
髄損傷
学級
##酒
Ｃｈｅｍｉｓｔｒｙ
２時間後
修飾
ＢＦ
あんな
毛布
肺結節
Ｂａｒｒ
ニュー
##潜血
##辞
致死的
じゃない
##Ａｏ
##飾
ＮＥＴ
##Ｍａｒ
##歯肉
３９週
##域
ャ
縦隔気腫
完全閉塞
織炎
伝
##皮質下
##内分泌
台帳
中心部
大血管病変
お前
正解
ｄｅｍａ
##羞
患肢免荷
骨破壊
使用量
加減
起こら
包炎
腸音
国語
内顆
肛門刺激
##ニア
５倍
済む
アゾルガ
キャラクター
おなら
##Ｄｙ
大阪
延命
Ｐｕｇｈ
運動制限
ｄｉｆｆｕｓｅｈｙｐｏｋｉｎｅｓｉｓ
起座
##ポリープ
ワンデュロ
エラストポア
ＤＤ
浸軟
下腹
右膝痛
１錠
寿司
筋力維持
重なる
平地
すき
困惑
素直
ホウ
##ｖｉｔ
ｎｏｒｍａｌｓｉｎｕｓｒｈｙｔｈｍ
しょ
Ｓｐｅｅｃｈ
左気胸
トレックスガーゼ
コンタクト
ｌｉｇａｔｉｏｎ
浮腫継続
##傾眠
足背Ａ触知可
胸膜癒着術
スタイル
手術痕なし
ＪＣ
考察
摂取不良
##昏
##褥
防い
##こぼ
自排尿
ＰＡＣ単発
オプジーボ
両足関節
##表情
いじっ
略
再来
ＦＩ
##停
未熟児貧血
膵断
霧視
様顔貌
##ラメ
##励
##間代
Ｒｉｔｕｘｉｍａｂ
不妊症
##ｆｕ
坐位
##ｃａｎｃｅ
ＰＴＸ
ペット
##合併
##エス
ヒュミラ
補う
伏せ
##ｐａｒｔｉａｌ
候
##ｏｐｅｎ
ｉｒ
シルバーカー
がかっ
Ｂ型
トリソミー
ストップ
保証
心窩部不快感
史
##Ｒｉ
開放骨折
##ｆｌｅｘ
震える
膿疱
##銭
浦
下痢気味
##胆石
##ｒｏｆｔｈｅ
##ビタ
##ｋｏ
豊富
語ら
フィルム
心不全歴
ｓｐｏｔ
##リチ
##ａｘｉ
##卵巣嚢腫
Ｌａｐ
ｇｄｉｖ
フィブラート
厚
ウラ
半月板
気管軟化症
重度嚥下障害
０歳
##ｃｌｉｎｉ
下部胆管癌
ＥＯＢ
##歯科
全身状態変わりなし
##Ｐｌａ
ふふ
意図
異動
移乗可
ＢＬＴ
##在宅
３発
##スピーチ
覆っ
体調良
部腫瘤
ーっ
チモプトール
血液型
##響
##ｍｉｌ
椎体炎
ックスクリーム
##門脈圧
鈍麻
##未熟児
##ヒリ
ｉｇｈｔ
うける
##ｄｏｐ
##ｉｎｆｅｒｉ
遺伝子変異
##大静脈
配列
フラッピング
目視
ーん
見つかり
ｏｌｉ
##ｔｕｒｅ
エリスロシン
の子
##胆管空腸
##損傷
おろし
##とも
右肺門部
褐色尿
##市立
おけ
##粟
##ｍｍＥ
ＩＢＷＰ
##偶発
クレキサン
冷罨法
##脈管
ｐｉｎｐｒｉｃｋ
食事摂取困難
おかゆ
##戦
肝腫瘤
##ｃｏｎｖｅｒ
考え方
##ｃｏｃｃｕｓ
ると
フォン
ＧＤＰ
##下肺
ストラテラ
生物
ＰＳＰ
##滴
手指消毒
##Ｔ１
トレドミン
##ＰＳＳ
ずれる
転子部骨折
控えめ
一泊
頑張れ
暗紫色
緩く
##コア
浮遊物なし
ｖａｌｖｅ
##ｂｐ
##ｓｔａｐｈｙｌｏ
ｄＡ
##レベ
ｙｓ
ビック
##ｔｕｂｅ
爪肥厚
払う
##ＲＦ
##虚
お知らせ
ＡＶＦ
ラミン
コイル塞栓
日常生活動作
保持可能
ブレーキ
まっすぐ
天井
##上顎洞
##依然
##国際
##ａｆｔｅｒ
基本動作
タムスロシン
要ら
線維症
苛立ち
##注察
一生懸命
心タンポナーデ
なるほど
##黄染
##蜂巣
##ＬＯ
ＯＧ
##冬
さすが
磨き
規定
##突っ
##家庭
出血症状
ｇｅｔ
##柴
ラボ
範囲拡大
ｓｅｖｅｒｅ
##ｈｙｄｒｏ
##ｓａｃ
##勘
放送
##腰痛
ネート
過形成
義理
ｃｔｉｖｅ
全身掻痒感
蝕
ＦＣＭ
##２１
ＴＵＬ
熟
##ｃｒｉ
御座い
ＵＧ
##ｍｏｎｏ
##封
ップアップ
##ｍｏｎｉ
##ヨード
嚢部
##テレビ
ＢＤｔｕｂｅ
##忘
ラム
高コレステロール血症
Ｌｙｍｐｈａｔｉｃｓ
じる
##施
##ヤク
パルミ
##アンギ
３０代
動機
##フェロ
施
##ふらふら
りし
帯状
張り感
##ｚｅ
診療情報
時々あり
ばら
##空気
もない
##プロスタ
さし
下腿潰瘍
漢字
おさまら
１２月２３日
敷い
##ペリ
いよいよ
心不全指導
##メイ
ゅう
ＴＴＳ
##磁
##シャル
選定
##ミー
トレプロスト
後朝
早朝覚醒
フローレ
##ＮＳ
血管雑音
おさえ
音亢進
##ＢＰ
高校生
ＭＥＮ
じて
##充実性
##肥厚
顔面麻痺
項
##ｆｅｖｅｒ
Ｌｉ
##海馬
ホール
共用
ｕｒ
ＡＺＴ
ケイツーシロップ
セレスタミン
固有
##転子
##ひきつ
Ｄｉｍｅｒ
骨折部
出勤
##ｆｉｎｅ
##腸内
８４歳
２７週
##間に
正午
##８０
療育
感音性難聴
##ＩｇＧ
憤慨
##第二
##Ａｆ
とご
嘔吐等
アンヒバ
##盲
ふらつきみられる
レーター
仕上げ
ＮＩＰＲＯ
##楽し
##消耗
腎梗塞
マンニトール
##頭位
４か月
こめかみ
デム
所要時間
##立て
##子供
##ａｅｒｏ
##ｔｉｓ
炎既往
なろ
桿菌
排便多量
##怖
ふらつきなど
好ましい
製
##たま
心肺
##ｒｅｓ
焦ら
##右腎盂
失認
ｇＯＧＴＴ
６０度
複雑性
呂律障害
粘膜下腫瘍
##トキソ
開始時間
##包帯
向ける
多形
未熟児網膜症
ソセゴン
頸椎症性
##ナル
背屈
##Ｈｂ
##ｐｏｓｉｔｉｖｅ
核型
神経伝導速度
スライド
中途覚醒時
##タッチ
##校
##紅色
##内視鏡
##うれ
体調変化
##スパイナル
##苓
アンケート
##さいた
両側性
ネル
反省
心奇形
発語なし
##ｍａｉｎ
グルコバイ
##気管切開
メロセル
ｌｕｎｇｆｉｅｌｄｓ
トイレ時ＮＣ
至り
##煙
着衣
片方
##自己管理
##困
胼胝
箋
ベール
ＢｐｒｅｃｕｒｓｏｒＡＬＬ
##ｅａｒ
ｆｅｃｔｉｏｎ
直に
経済的
戻れ
末梢漏れ
##Ｓｊｏ
ノルアド
##ｕｎｇ
主幹
漏れる
##ｇｉｎ
掛物
ＦＲ
ｏｌｏｇｙ
対症
ホ
ｆｅ
鎖骨上リンパ節
##ｗａｌ
##的な
膵尾部癌
ＣＲＦ
蒸留水
##ｄｅｔｅ
ＡＯＳＤ
ＰＷＢ
ｓｓｉｇｎ
っちり
自然消失
##胃腸
黄斑
エクセラーゼ
血腫形成
過量
血栓予防
##咽頭部
後悔
間欠性
頑
吸わ
膵臓癌
前期破水
##自治
ゴール
頼む
児頭
あんた
割れ
左肺動脈
ＲＡＳ
パール
##販
矢
ｍｉｌｋ
##ｇｅｎｅｒａｌｃｏｎｄｉ
腹部不快感
ｔｅｒｙ
６日目
##移行
##分離
ＲＡＥＢ
ＢＥＶ
##吸引
粘稠性
##よく
ランセット
おっしゃる
ッピング
ｃｈｅｓｔ
細胞型
ｏｄ
ショート
##ルモ
キシマブ
##至
##結合
８５歳
色素沈着あり
索状影
##ｄｉｆ
高体温
トランスアミナーゼ
判別
発赤部
大動脈炎
##多量
先天性
抗核抗体陽性
ｈｒｓ
心内修復術
Ｄｏｃｅｔａｘｅｌ
異所性
ｓｅｖｅｒｅＴＲ
むい
ドリンク
腸管拡張
建て
##気切
イヤホン
##吐き
迷う
企画
状態著変なし
バスキャス
##ヘパ
鳥
##指示
##蜂窩
##パス
速く
剥
来月
ウロキナーゼ
外線
##増殖
##休息
##戸惑
ｓｐａｓｍ
##増や
迷
疎通性
##手足
壊疽性
ｇｅｎｅｒａｌｓｔａｂｌｅ
表皮剥離部
朝ご飯
クター
腟培
廃棄
ＰＣＩ
言語理解
過換気
受け持ち
##殿部
多房性
呼吸音左右差
プレミネント
##ｃｅｒｖｉ
関節屈曲
背筋
得点
ｙｏ
##払
机下
##Ｏｓ
リンパ嚢胞
##ｐｅｒｏ
９０度
ザル
強固
軽度膨満
仕方がない
新宿
ｓｃａｒ
ろす
ＨＧ
持てる
正月
お互い
ソタコール
らみ
##右頸部
##ナイ
##随
出血斑
##預
ｄｅｍｇａｉｔ
低髄圧症状
公立
対象者
過量服薬
##アセ
扁桃炎
##だら
している
##Ｂｉｌ
い感じ
ｐｏｏｒｓｔｕｄｙ
##ｂｉｌ
ＵＶ
毛細血管拡張
##肋
難しけれ
プラチン
##喜
##アンモニア
##キス
散漫
ルート留置
##ｓｉｎｕ
##デュオ
上向き
協
腹部疼痛
液性状
小腸イレウス
術後イレウス
かかと
パワー
##コリン
ｇｈｔ
うに
##ａｂｌｅ
たつ
##紫
好中球減少症
する感じ
##おとな
躁
客観的
##ｍｉｔ
##漿液性
##ｈａｎ
Ｓｐｉｒｏ
多発筋痛症
ａｎｉｎｇ
転落リスク高い
づまり
小血管
Ｓｐｅｃｋｌｅ
##産生
##ｐｏｓｉ
##鼡径
既婚
クームス
ｄａｙｑ
##救
##お手
膀胱尿
##Ｌｏｗ
しり
従命入らず
##メッ
短期記憶障害
段階的
パンパン
専門外来
ｓｔｉｎｅ
##すっ
ｎｏｆｅｖｅｒ
##梨
ｐｏｉｎｔ
有用
##Ｗｅｒｄｎｉ
キャビロン
##ｌｅａ
半減期
##Ｇｅｎｅｒａｌ
平静
見込める
##ｃｉｎｏｍａｏｆｔｈｅ
不正性器出血
##タク
皮膚悪性腫瘍
高度肥満
下肢軽度
##ｆｉｂｒｏ
##スキュ
##睡眠時無呼吸
回ら
##搾
加える
鳴
マウス
##向き
##左上顎
ｌｉｖｅｄｏ
脳溝
空か
ＧＧＯ
##ａｒｃｏ
残数
寝付け
慢性中耳炎
##感受性
##迫
食器
##脇
##リズ
払っ
Ｄｘ
##ロキソニン
限度
##殻
破砕赤血球
休まれる
しびれる
膝くずれ
##イム
ｉｎＶ
強陽性
なす
##ここ
ｍｍＨｇＲＲ
##心膜
ｓｕｐｒａｃｌａｖｉｃｕｌａｒ
##上行
弁別
##ｂａｌ
##内転
トンネル
##ふらつきみら
両鼠径
ＥＮ
穿刺部出血
ｂａｃｔｅｒｉｕｍ
頂戴
脚ブロック
うなずき
カク
不整なし
##呂律
##ｃｈｒｏｎｉｃ
慢性呼吸不全
甘え
##ｍａｊ
がご
##ｌｕｎｇｆｉｅｌｄ
##ｇｒｏ
##ジギ
内失禁
##幸
定位
肝機能悪化
##損
律動
ドル
ベリ
##ペンタ
潜血３
##見え
エンブレル
ブドウ膜炎
フィニバックス
あくまで
Ｅｘｔ
ＮＫ
ｂａｓｅｌｉｎｅ
##クロス
住宅
##ｋｅｌ
##披裂
高ＴＧ血症
誘発性
##泥状便
落下
又
申しあげ
ＥＧ
頷か
##横隔
ＣＥＬＬ
##参
##まり
ＧｎＲＨａ
別居
##ルテ
ラップ
組織型
##老人
県立
負荷所見
未使用
毎朝
##発作時
立てて
右足首
ｓｅｓｓｉｏｎ
徒歩
##ＨＡ
差額
静脈瘤破裂
近隣
ＵＺＥＬ
##実質
##リボ
ＤＶＴ既往
##ｎｏｒ
##不定
十二指腸狭窄
ｉｎａｃｔｉｖｅ
残存病変
##九
##だる
カレー
##気に
ｑｕｅ
ｕｔｒｉｔｉｏｎ
##ｓｏｒｙ
##続
嫁さん
篩骨洞
なにとぞ
同僚
腫脹軽度
拙劣
副甲状腺機能亢進症
ペイ
##求
摂取可能
##幽門
##ｄａｎ
##ｍｏｂｉｌｉ
一時間
やれる
骨病変
いらいら
関し
真面目
リンパ節炎
唾液腺シンチ
##肺静脈
ｍｇｂｉｄ
自力排便
それなら
##ｖｉｅ
##ｂｓｅｒ
##のめ
移り
寄っ
不思議
スルペラゾン
Ｄｅｘ
前駆症状
効率
際し
強迫性障害
意思表示
多発子宮筋腫
ぶん
##Ｏｐｅ
ｃｉｎ
##薬剤性
片麻痺
##Ｈａｒ
見合わせ
皮弁再建
##鼓
##泡
ＤＷ
スミ
##豆
性疼痛
低濃度
上層部
ずらす
フレッシュ
アライメント
##ｐｌ
爪上皮延長
左肝切除
穿破
ＣＥＰ
##治癒
損
午後１時
多剤耐性
パラプラチン
玄関
##ＷＨＯ
人数
ｄａｄｅｎｏｃａｒｃｉｎｏｍａ
ＣＴＧ
呼称
ノイ
ネガティブ
疲労感強く
##舌下
##限
空洞
ＣＡＡ
ジルチアゼム
結節状
飲み込ん
テンポ
ウィンスロー
一点
職歴
付添
外反母趾
療室
##ｎｅｐｈｒｏ
肺線維症
膝蓋骨
ｅｎｉａ
徒手
ｒｉａ
##ｅｌｅ
蛍光
ｎｂＵＶＢ
##ｍｕｓ
##問
ミトコンドリア病
##メンタル
ＩＦＯ
##とう
もら
吐きそう
##謝
ｘＳ
まとまら
##ｐａｓ
##受傷
ツキ
７年前
リモコン
##賜
ＣＡＰＤ
脱水予防
８週
内分泌腫瘍
##肝腎
##ｍｐｈ
##ｃｒｅ
感染所見
歩数
迄
##ＬＳ
ｂｏｄｙｄａｙ
肉芽腫症
##右肘
学歴
立腹
医療用麻薬
ｃｉｅｓ
とっても
お子さん
Ｖ感染
##溢水
テニス
レンジ
##子宮口
##嫌気性
意思決定
いわく
可視
性失語
肺ケア励行
浮腫性
メピレックストランスファー
つかめ
有棘細胞癌
##発生
##ｔａｔｉｏｎ
##尿細管
心肥大
##Ｃｒｏ
##慢性的な
##蝶形
硝子体出血
形筋
シャツ
ネリプロクト
##ｄｅｂｒｉ
友
##ｌｙｍｐｈｏｍａ
ソファー
おもわ
朝排便
##独歩
わるい
##褒
疑
ったり
科疾患
肝脾腫なし
マック
ダイマー
Ｄｉｇｉｔａｌｅｘａｍ
##上が
外せ
判
真ん中
ブドウ球菌
ＦＭＯＸ
広間
呼吸苦改善
ＷＥ
７２時間
ｋｉｎｇ
ｃｅｒ
発性
即時
メロン
異型性
ＨＰＳ
##Ｂｒｕ
拡張症
##息苦しく
ｃｏｒｏｎａｒｙｒｉｓｋ
##訪室時
通ら
５階
##遺
１２週間
若く
羽
かな
テーピング
鬱滞性
##肺雑
ＰＲＯＭ
肺野清
##特異
##鶏
##矯正
##減少
オレンジ
引き起こす
編み物
本人拒否
モチベーション
##ｍｅｔａ
##壁在
増強感
いとこ
乗り越え
漬物
瞼
##ＣＫ
Ｂｉ
ｕｎｔ
ａｒｄ
ビタール
##Ｖｉｎ
在室
エスクレ
黒く
ビスホスホネート
##呼吸性
頚椎症性
ｍｃｇ
いくつ
##調節
##電解質
すりガラス陰影
こんにちは
白色粘調痰
ｓｔａｇｅＩＡ
乳頭マッサージ
ＣＳＩＩ
頓挫
はあ
##Ｏｎ
リンゴ
##ＦＡ
眼窩内
##ｇｈ
##ｔｔｏ
閉じる
麻酔下
肺ＭＡＣ症
巨大
##若
手足のしびれ
##結び
子宮脱
リンパ節再発
やわらかい
事業所
Ｒｅａｃｔｉｖｅ
##ダイア
##メトレ
##サリ
知覚低下
パート
軟便中等量
スインプロイク
レクチゾール
舌小帯短縮
受容体
およそ
##２回
紐
売
後者
除き
##前立腺癌
ｓｐｌｅｅｎ
エラスト
##肺門部
##婚
##心室性
##ｉｍｐｌａｎ
補助具
同左
##ｔａｐ
Ｆｏｌｌｏｗｕｐ
##肝脾
組ん
##害
代償性
ｍｏｕｎｔｏｆｃｅｌｌｕｌａｒｃｏｍｐｏｎｅｎｔｓ
ｍｇｑｄ
虫垂炎手術
下筋
##葉間
##掻痒
っくり
崩れる
##当ては
温かい
##抑鬱
##リド
食道瘻
ｄｏｓｉｓ
すん
せん
ＭＤＡ
ｐｒｏｘｉｍａｌ
##一時
停留精巣
要支援
##亜昏
甲状軟骨
##起始
自尿なし
##ＦＣ
ＲＬ
総合的
プラゾール
##ＷＢ
航
シップ
##バレ
掲示
##ｂａｌｌｏ
満床
##胸壁
右ＩＣ
ギリギリ
ローリング可
##オノ
戸惑い
##認
##捕
##Ｅｌｅ
瘻孔部
部腫脹
海外
超速効型
倍量
厚く
##鼻中隔
季節
ドクター
ケンエー
ｆｌｕｉｄ
##勢
##相対的
##ｉｎｄｕｃｅｄ
寝ぼけ
間隙
相談員
叢
預かる
##横行結腸
##入眠
##美味
電動
##ａｃｔｉ
##肝機能
Ｕｒｉｎｅ
シールド
##筋膜
サイキン
左ＩＣ
##ｐａｔｃｈ
##Ｃｕｓｈｉｎｇ
##承
ばらつき
断眠傾向
後葉
嚢胞感染
##Ｍｉｃｒｏ
ヒダントール
ザピン
##岐
険しい
署
酸性
##ニン
##ｓｐａｓ
##ａｍｏｕｓ
のっ
パンスポリン
夜間覚醒
自尊心
##ｕｌａ
緩い
正座
ぜん
１９８８年
ハロー
##坐骨
ステント
ふら
##ｓｏｕｎｄ
ＬＰＬ
覆う
シナジス
庭
湿性嗄声
##ｉｇｎ
ジクアス
向かい
如何
瞬間
##給
３カ月
##ゼル
##おち
ｉｎａｔｉｏｎ
注文
９１１
ゴロゴロ
乖離
共感
示
キッド
挟む
経口摂取可能
乳輪部
ｕｐｆｒｏｍｓｉｔｔｉｎｇ
のり
ｏｒｔ
台発熱
##たと
ハ
異常ガス像なし
西暦
##輝
創部痛なし
##ｓｉｚｅ
ステント閉塞
##羊
胞体
海綿状
間もなく
やってき
血栓増加
フオイパン
指症
アメリカ
##緊満
ｓｅｖｅｒｅｈｙｐｏｋｉｎｅｓｉｓ
ジョン
下回っ
ｒｋｉｎｓｏｎｉｓｍ
ＣＺＰ
低身長
性なし
創部浸出
９点
金庫
##腹部大動脈
カビル
オレンシア
肝血管腫
##拒否
##叩
付き合っ
読ま
術後経過問題なし
叩く
屈曲位
腫瘍栓
つくる
##椎骨
##泣き
##乳腺
体調悪
作ら
末期
##ｍｕｌｔｉｐｌｅ
ｕｒｉｎｅ
肺動脈性
##ーン
収集
円蓋
##第三
##３５
麻酔科医
ｂｉｄ
ｆｅｃｔ
##ａｂｄｏ
遅かっ
Ｑｓ
腹痛持続
サンコバ
流れる
##Ｔｒｍ
##Ｄｅｘ
動脈管開存症
易い
##ｕｒｉｎ
控室
実習
肛門管
体型
吻合術
##メチル
##ｔｉｃａ
持ち物
ごろごろ
ネント
Ｇｅｎｅｒａｌ
##Ｆｒｅ
アリミデックス
ｊａｗｍｏｖｅｍｅｎｔ
##ｖｏｌｅ
ａｆ
挺舌
##プト
##筋力低下
ＣＥ
歩行時ふらつきあり
動きあり
##ｐａｎｃ
##ａｐｐ
ほんの
眠たい
ｏｓｉｓ
部活
取り組ま
##危険行動
座瘡
##否
眼内レンズ
聞
血管外漏出
##ｒｅｇｉ
##聴診
ｔｔｅｒ
中枢性尿崩症
況
出血所見
陽性症状
ｄｙｎａｍｉｃＣＴ
ｋｉｎｅｓｉｓ
チーム内
##衛生
差し
##ａｎｇｌｅ
##友
##多弁
Ａｚａ
##部位
##ミオ
頚動脈雑音
そろっ
トコフェロールニコチン
ｂｌａｄｄｅｒ
##神奈
術後感染
お家
動画
ティブ
##談
哺乳瓶
ｂａｃｔｅｒ
投与方法
##尋常性
##ｇｅｒ
ふらつき強い
##ｄａｌ
##不可
Ｓｋｉｐ
##嬉
Ｐ血症
脇腹
近づく
ｉｎｄｕｃｔｉｏｎ
##好酸球
熟睡感
逆血確認
３２日
空調
ｃｅｌｌｃａｒｃｉｎｏｍａ
科的疾患
##鏡
ドンペリドン
Ｐｓｈｕｎｔ
ｄｉｎｇ
拮抗薬
徐脈傾向
##ＲＣ
受け取り
##ドン
##パタ
##カロ
ＴＴＮ
無くなり
垢
指さし
##過形成
クエチアピン
アスベリン
メキシチール
尺骨
腹水コントロール
ミット
特性
ＤＣＦ
あるかな
ほっと
肺雑音聴取
義足
経産婦
屋外
お守り
単神経炎
##ｌａｐｓｅ
頸髄症
##ｇｅｓ
基底
通勤
考えれ
当たら
##腹腔
##分裂
専門学校
##ピリ
腸蠕動微弱
##ｅｍ
投げ
##後頭部
ＴＵＲＢＴ
ワイン
精神保健指定医
ｗｏｕｎｄ
長引い
口唇口蓋裂
浸潤なし
嚥下痛
除毛
##募
新生児黄疸
硝酸イソソルビド
見つめ
##間欠
係数
有意所見
ニド
各々
仮性動脈瘤
ローム
せめて
##恋
振動覚低下
老人ホーム
研究室
ページ
フェン
ｔｅｍｐｅｒａｔｕｒｅ
##ｔｙｐｉｃａｌ
気分不快感
テーパリング
ッグ
##ｕｓｅ
骨粗鬆症予防
量低下
##右半身
ｒｕｌｅｏｕｔ
カバサール
感著明
１０倍
ａｋｉｎｅｓｉｓ
ニュープロパッチ
カリーユニ
耐久性
##蓄
ｍｏｌ
アトピー
性貧血
ミノルタ
サージ
全然大丈夫
##諸
##禁
内膜症
点数
３４回
ジプレキサザイディス
ユニシア
な症状
##レス
怪我
ｃｏｎｖ
ｈａｍ
##ｃｅｎｔｒａｌ
ＵＢＷ
夏休み
絞扼性
ｕｓｅ
口内
丘
スタゾール
係活動
はいはい
すね
胸椎圧迫
##Ｔｙｐｅ
悪性症候群
Ｆｌｕ
##ホルモン
##リズム
好ま
皮膚トラブル注意
乳糜胸
バンク
症既往
書け
ｈｒｄｉｖ
ＰＧＮ
夜間トイレ歩行
枠組み
カデックス
くら
##シュー
４５度
報告書
##喫
脱血
##造影
ｍｇｐｏｔｉｄ
毒
セプラフィルム
サルタン
##ｔｅｍｐｏｒａ
肝疾患
腎機能低
だい
のう胞
##ｃｈｅｍｏ
##ツベル
低血糖指示
##頭頂葉
左視床
詰まる
帰宅願望
骨撮影
成熟
満腹感
タオルケット
##ｆａｒ
ｄｅｍｅｎｔｉａ
見込め
２６週
##錐体路
##水泡
やり取り
##清潔
体圧高
##旋
譫妄
腫性
##食前
レザルタス
クロ
##めんど
ヒアルロン酸
あう
挙げる
##王
五分
呼吸器疾患
いいっ
ロカルトロール
怖かっ
##演
##投
有事
ごみ
##起こり
##多少
なんらかの
開腹手術
持ち帰っ
##腱反射
ＴＭ
外観
位置覚
分画
絡ん
ＰｇＲ
##Ｔｒｅ
ｃｙｔｏｍａ
ｃｏｍ
１０点
頻脈性
洗え
しや
##脂漏
悪感
全身浮腫著明
帰ろ
生活指導
##ＩＢ
縦隔リンパ節転移
Ｃｈｅｓｔ
重心
##構音
則り
##洗濯
##折り
覚醒不良
Ｉｎｓ
ｎｍｏｌ
曲がっ
ｑｕａｄ
皮膚剥離
##着脱
欠如
がかり
定着
##火照
##Ｔｅ
スコープ
##ペンニードル
##排便時
##ｐａｎ
##落ち着
Ｃｏｌｉ
##拘縮
ＴＫＡ
ガストロ
さがっ
##監
アイサイン問題なし
前兆
##運転
右肩甲骨
麻疹
侵襲性
##弾
##トイ
##排出
僧帽弁置換
##ｕｒｅ
Ａｐｇａｒ
ｄｙｓｐｌａｓｉａ
オムツ内失禁
鎖骨上窩リンパ節
野球
##セラ
ｎｅｕｒｏｐａｔｈｙ
カルチノイド
後嘔気
ぐれ
つながり
ヒリヒリ
##色調
ナゾール
便排泄
免疫グロブリン
ｒａｓｈ
ｓｋｉｎ
炎等
##接触
胆汁瘻
##痺
##ｐａｒｏ
##ｍｐｔｏ
硫酸
大彎
##スペク
##子宮頸部
##オイ
新生児一過性多呼吸
乳児
飛ん
屈筋
##症候
##腐
早々
皮膚緊張正常
心胸郭比
官
##尿量
言い難い
線上
わし
コラーゲン
隠し
破れ
っこ
ａｂｉｌｉｔｙ
微温湯
Ｃａｎｄｉｄａａｌｂｉｃａｎｓ
##興奮
##出し
お孫さん
ダル
##ファン
頚髄症
皮膚トラブル発生
粉薬
干渉
そこそこ
##手根
奥歯
##県立
胸膜肥厚
ｐｎ
哺
のむ
##ｍａｒｙ
概略
下肢脱力
左ＣＰ
リコモジュリン
なう
１９８５年
ジャディアンス
##トロン
##Ｃｈｉｌ
アモキサン
食物残渣様
ｃｈｅｍｏｔｈｅｒａｐｙ
順位
ｒｏｗ
リバウンド
左膝痛
##ペイン
各科
異常時
##我
Ａｆｅｂｒｉｌｅ
サラ
##Ｉｔｏ
##アマ
##栃
ｋｙ
尖端
アブラキサン
プレッシャー
エルシトニン
意外と
##くだ
かけれ
癒着剥離
##ｔｅｓｔ
足立区
眼球上転
ＣＢＤＣＡ
シッド
省略
##ｎｏｄｕ
##セファ
##靭帯
明し
ｏｓｔｏｍｙ
ｓｔａｇｅＩＶｂ
##町
交渉
正面像
##趾間
腱断裂
##レナ
左心不全
空間
測定器
ｔｒａｎｓｆｏｒｍａｔｉｏｎ
調節可能
レイノー症状
ｍｌｄｉｖ
混
カルバジン
質問等
証明
自然排便
##企
性白血病
##シンチ
ｌｏｎｇ
骨肉腫
心陰影
##ｐｈｏ
ｈｙｐｅｓｔｈｅｓｉａ
ｘｉｓ
##アンギオ
##議
サルコペニア
１９８６年
買う
海
エラスタ
ひとりで
##つけ
##架
カテーテル関連血流感染症
メイバランス
##ｏｍｏ
性肺癌
##異常ガス
##ジオ
広
尿意なし
測定不能
視神経炎
火水
##シリン
Ｎｏｍａｌｉｇｎａｎｃｙ
Ｎｒｓ
不詳
##ｔｈｙｒｏｉｄ
閉塞機転
同調
プリ
##周辺
プロン
##クト
##そろ
空咳
##中途
ｎａｔｕｒａｌ
##ｃＳｔａｇｅＩＶ
ｐａｐ
##倫
排卵
退行
##痂
センサ
##司
歩こ
務
##ダンピング
Ｘｒａｙ
Ｓｔｉｌｌ病
つとめ
##Ｂａｓ
循環作動薬
四肢筋力低下
##ｌｉｐ
##ｒｉｇｈｔ
部下
##クラリ
ずき
つなげる
##あく
##ｖｉｓｕａｌ
再造
##水圧
##疾
つり
ちくちく
嚢炎
近々
工事
##ｒｉｓｋ
つない
エリプタ
ａａＩＰＩ
##ｍｏｎａｒｙ
ａｓｔ
ザイボックス
##変わ
##齢
細気管支炎
##Ｚｏｎｅ
ジア
##ｏｈ
ベースアップ
##断端
不明瞭化
逆流感
乳頭部癌
偏り
ＣＯＰ
四徴症
ｓａｕｒｅｕｓ
##沢
ピアノ
##突起
はさ
レシピエント
不便
ｓｔａｇｅＩＶＢ
たれ
生理痛
緩和医療
姿見
ｈｅｍａｔｏｍａ
オキシベント
か等
##左頸部
嚢胞腎
主膵管拡張
頭痛持続
身障者
##中足
##ＲＩ
##肝細胞
氷片
朝尿
熊
ｒｉｎ
低Ｍｇ血症
##クリプトコッカ
センチ
##Ｓｏｆ
##菱
軽度拡張
化粧
コンチン
##Ｗｏ
##隅
##ｂｒａｄｙ
##Ｃｏｒｏｎ
１３階
ＡＨＩ
##リンパ球
呼吸苦等
##右房
ミルクアレルギー
##Ｂｅｈｃｅ
##カルボ
強まる
ｃｏｌｏｒ
##繰り
作製
ゆるく
ｃｔｕｒｅ
食事摂取可能
##ｔｈｙｒｏ
掛け物
疼痛消失
アヘンチンキ
再構成
動こう
ｌｅｄ
ｃｈｙｃａｒｄｉａ
円背
ＥＰＩ
##ｐａｔｉ
弁護士
ＩＦＭ
Ｒｏｍｂｅｒｇｓｉｇｎ
ピアーレ
クラリスロマイシン
哺乳意欲
ばす
前かがみ
##第１
叫び
採血問題なし
聴こえ
自己抜針
握る
外液負荷
極低出生体重児
高濃度
ＰＬ顆粒
ジェムザール
##胃潰瘍
回転数
##コロ
症状著変
滲出液少量
渡っ
##頚動脈
ｌａｂｏ
##準備
##慌
##感度
事務所
興奮気味
馬尾
反回神経
クッキー
##ｃｈｉｌ
##ｉｚｕ
##エバ
##連日
特異抗体
##ｉｎｄｕｃｅ
どきどき
##ｓｃｌｅｒｏ
膀胱造影
ブドウ
##こみ
大腿四頭筋
絞扼
心サルコイドーシス
ＵＢ
ていいん
ＲＣＭＤ
##切り替
セフェム系
固形
不安発言
豊か
##痰中等量
内出血斑
曝露
##ｓｔｅｎ
低リン血症
易刺激性
##玉
異常運動なし
仙川
スーパー
ｐｈｙ
排尿痛
クモ状血管腫
##ザル
##ＤＥＳ
午前９時
永久
ふりかけ
##関東
##ｈｎ
覧
Ｓｕｃｋｉｎｇ
##Ｉｎｔｅｒ
のん
代謝性アルカローシス
アリムタ
咽頭期嚥下障害
左記
月間
ニュートライド
閉感
##アドリア
##羽ばた
##ぐら
##ポア
合え
##Ｖｅ
診療情報提供
##ＲＲ
擦れ
血糖低下
静脈血栓症
脂肪吸引
##ｅｎｚ
##夜間尿
慢性疼痛
ＡＥＤ
##ｌｉｇｎ
サイログロブリン
##ｃａｒｃｉｎｏｍａｏｆｔｈｅ
##スタット
##ｈｅｐａｒ
唾液腺
共同
こぼれ
##コンサル
##暑
ｃｒ
輪形成術
つっ
##ｔａｃｈ
ｒｅｃｏｍｍｅｎｄａｔｉｏｎ
接触性皮膚炎
あさって
部狭窄
逆流症
##ｄｉｆｉｅｄ
ｍｅｑ
ＣＳｐＯ
##ｈｙｒｏ
足背動脈触知可能
グルカゴン
ｐａｓｓ
プール
エアゾール
##多臓器
##ケース
鞍
過活動膀胱
##振り返
ｃａｒ
４０度
想起
ｌａｐｓｅ
いし
３０分間
##ＢＭ
ッキング
困難症
二つ
ＳｖＯ
ｐｌａｃｅ
わがまま
##超
ｄｉｓｓｅｃｔｉｏｎ
ＳａＯ
切替
１９８９年
｀
増殖症
いが
##透明
潅流
ナッソー
ＣＣＡ
##険
##ログ
みに
東京都
帽子
##ｇｌａｎｄ
##熟眠
バルーンカテーテル
Ｎｉｐｒｏ
しだい
自家移植
##ｓｅｒｏｕｓ
##ｓｍｅ
ｄｒ
##店
##ホーマンズ
にわたる
膜症
どうでしょう
##メル
ｌＨｂ
##若年
##不安言動
##おじ
##挑
##平低
欠席
陰性症状
左足首
Ｓｔａｂｌｅ
##おそ
同行
##硬性
れあり
未婚
ＣＭＣ
##呼気
アルドラーゼ
##おさ
開か
##引きず
##虹彩
無色透明
門脈血栓
##押さ
いつい
ｐｏｓｉｔｉｖｅ
関節固定
老年
##災害
ｓｔｅｒｏｉｄ
##ｃｌｏｎ
##硬膜外
##ｌｉｖｅｒ
き込み
時折咳嗽
一か月
ｓｙｍｍｅｔｒｉｃａｌ
##モリ
網膜炎
自主トレ
ｖｅｇｅｔａｔｉｏｎ
##ヒュー
ダメージ
ケーブル
##ＤＫ
寝入っ
潰瘍食
眠剤追加
スタンド
ＣＫＤＧ５Ｄ
ナル
月経過多
脂
##基底
皮膚湿潤
荒
ＲＢＤ
ていた
状態悪く
##ノボ
##ボル
ボディ
トマト
８点
視界
排気
腸管穿孔
構造物
機嫌良い
延ばし
甲状腺炎
わるく
見かけ
ＡＩＰ
アル
ｐａｔｈｏ
公園
Ａｄｍｉｓｓｉｏｎｏｎｆｏｏｔ
歯医者
##血友
岩
##ｍｅｔｒｉ
鮮明
増設
主任
ｍａｒｇｉｎ
ベラプロスト
ましい
ごめん
活動的
グループホーム
ｒｏｐｅｎｉａ
滞り
ｎｏｔｐａｌｐ
##ｃａｒｄｉａ
ベント
Ｔｈａｗ
不全麻痺
しぶしぶ
ｐａｎｃｙｔｏｐｅｎｉａ
##ミトコンドリア
##心嚢
部骨折
##ファー
脆弱性
##陳旧
##脂質
##苛
ｓａｒｃｏｍａ
##ドラ
自力体動
##閉眼
膵仮性
ハット
味付け
圧症状
##ベー
##眼窩
歩くとき
打撲痕
後頭痛
マニュアル
洞性徐脈
##ヒューマ
ボラザ
相違
調節可
##奇形
偽腔
住む
集積亢進
##ｉｎｖｏｌ
躁うつ病
##ｈｅａｒｔ
ＡｕｔｏｎｏｍｉｃＮｅｒｖｏｕｓＳｙｓｔｅｍ
##ーシ
症状無し
##焼灼
やりとり
##味覚
##グロ
ぜこつき
腹壁ソフト出血
ボンド
来日
##双極性
棘突起
疲労感強い
ｔｗｉｎ
##津
社会復帰
##排尿時
びり
偶発症
##ｃｅｌｌｕｌａｒ
##パーキンソン
##解離
ＬＳＣＳ
##申請
##インフュー
ぽかぽか
隔壁
##導入
##秒
##徴候
##Ｓｈｏｒｔ
##挟
リーズ
メタネフリン
##呻
##ｃｏｃｃｕ
出れ
##生検
迷い
リピディル
異常増強効果
ポン
潰
Ａ１
ケトン体
学童
ルリコン
粗大病変
ｓｉｔｅ
日頃
分けて
機関
せれ
ｓｔｌｉｎｅＣＢＤＣＡ
１０時間
##称
ＫＡ
##ビス
挫傷
３０年前
##範
##ラム
喀痰排出
##ｎＢｎ
足趾運動
ｄｏｌ
僧帽弁形成術
##切れ
ーナ
ハイゼントラ
アサコール
心電図モニタ
##リピ
##ｃｉｒ
オイグルコン
##榊
半固形
軽度残存
ｃｌｅｓｉｏｎ
ＭＷ
浮い
機能亢進症
煎餅
いたこと
食道狭窄
##黄疸
##選択
胃食道逆流
##バラ
##変化
##級
ケー
##Ｔ字
クリーン
逃げ
公表
##Ｓａ
ｓｐｉｋｅ
メーカー
出血部位
ラリー
障
##米
ビタジェクト
諦め
ｇａｉｔ
##ヨウ
自己調整可
##Ｍｔ
びらんあり
##近親
もどっ
剖
人形
##ｎｅｃｒｏ
悪影響
播種再発
ＴＯＰ
ｂＡ
創部腫脹
##閉塞性
皮疹改善
ＥＮＧＢＤ
##肋間
##ｌｉｋｅ
制吐薬
陥っ
しめ
骨折線
ＤＤｘ
オプスミット
##評価
側頭骨
着け
ヤー
次々
##制限
##継続
##入り
##まち
##Ｎｏｒｗ
ＤＭＮ
##■
##録
救急科
##下行
ウロ
ｄｅｘ
感染等
##芝
裏側
##睾
##ａｆｅｂｒｉｌｅ
５０年
嘘
##氷
血管障害
##裁
プラボトル
攻撃性
粘膜肥厚
知的障害
##バレー
すすみ
##姉
血栓形成
高血糖症状
##利用
中皮腫
経済
カナマイシン
##ラル
##カップ
カルナクリン
渋々
##アネ
ｉｎｇｕｉｎａｌ
##ｄｕｃ
##ｓｍｏｋ
原因菌
低濃度域
挿入困難
ｓｃｒｅｗ
蛋白血症
エンド
##ｓｌｕ
着時
##メトロ
あらためて
骨突出著明
ポート感染
仙骨部発赤
##盛
メラ
ＴＡＡ
排液淡血性
##ワル
耳閉感
弁輪
乳糜
この辺
クロルトリメトン
２５週
サッカー
##ＮＲ
##ｃｕｒ
別れ
##レチ
把握痛なし
血糖高い
気管孔閉鎖
肺炎予防
##ｆｕｌ
##有茎
ゾラム
デルマポア
##さん
身体表現
オメプラゾール
骨骨髄炎
急ぐ
ッジ
ｄａｙｄａｙ
再三
##途中
送れ
腓腹筋
国際
##供
##ブロック
遊離皮弁
ｉｎｏｖｅｒ
##まき
巨核球
キネダック
ＬＨｂ
安定化
外的刺激
##特定
ＶＺＶ
パスバリアンス
##夏
しみる
スキル
Ｔｒｏｃａｒ
ｍｌｏｕｔ
##胃残
カルバマゼピン
##低位
##ｏｌｄ
っきり
##ｉｎｄ
##アコ
に対しまして
中血圧
波なし
発赤著明
##ｖｏｌ
おち込み
##ｐｉｒｉ
付け替え
##ベクロ
関節運動
痰多く
移し
かぁ
くと
ｂｂ
伸びる
##限局
ｍｉ
冠動脈病変
ｉｌｅｕｓ
折り返し
過多月経
丈
ｃｍＩＢＷ
右腎瘻
##Ｌｕｎｇ
参り
Ｅｎｔｅｒｏｃｏｃｃｕｓｆａｅｃａｌｉｓ
Ｒａｄｉａｔｉｏｎ
定型
##肺門
Ｒｏｍｂｅｒｇ
アイミクス
３４日
##上腸間膜
##ＩＧ
肺動脈閉鎖
ばし
連鎖球菌
来年
##ＡＤ
カリ
空笑
開排
妊娠歴
算出
##恵
##得
##さみ
遣い
ｗｅｔ
##こん
機嫌良
滑膜炎
うっ滞性
細か
ｍｌＩＶ
排尿良好
Ｓｉｚｅ
##洗い
左内頚動脈
##Ｎｕｃｌｅ
コンパートメント
肺動脈血栓
##ｐｅｎｄ
メッシュ
設部
ＬＢＷ
清潔保
##捨
Ｃａｎｄｉｄａ
プルセニド
歯茎
じれ
食道閉鎖症
障害等
食思不良
コンプラビン
こえ
##イソバイ
ひりひり
吸引圧
オールペーシング
##Ｍａｌ
ほしく
##窮
##マイシン
おぼつかない
##Ｓｑｕ
##昨晩
喉頭浮腫
紅色
展
Ｐａｒｋｉｎｓｏｎ病
ｇｒａｐｈｙ
ヘルニア嚢
経腟分娩
##留守
顕在化
##ｊｕｎ
右大腿骨頸部骨折
ｓｔｅｍ
##ソル
##検出
##顕微鏡的
ピー
オンブレス
##ｓｔｌｉｎｅ
##ｐｙ
##Ｆｕ
Ｔｘ
##ノール
ｓｈｉｆｔ
##あきら
シリン
炭水化物
ＴＴＰ
偽関節
剥離術
##紛ら
球減少
メニエール病
立場
##アンチ
先進
##ｒａｐｉ
両下肢浮腫著明
皮膚統合性
##メチ
ｉｂ
フォーミュラ
掻痒感強く
##付き
##消毒
ｃｏｒｏｎａｒｙ
##辷
腎臓病
##軟部組織
高カルシウム血症
ｔｅｎｓｉｏｎ
ＭＧＵＳ
んじゃ
##執
おおよそ
ｗＰＴＸ
ンチ
こもっ
ｉｎｆｕｓｉｏｎｒｅａｃｔｉｏｎ
##ジスト
イソジンシュガー
遺伝性
垂
##捻髪
ワクチン接種
##外出
ｓｃｌｅｒｏｄａｃｔｙｌｙ
１９８７年
本日発熱
##エリスロ
二回
ｂｐｍｒｅｇ
みせる
腹腔内出血
脊椎麻酔
##Ｑｕ
ブルフェン
##横紋
##気持ち
呼吸症状
##ｐａｃｅｍａ
有形便
瘤破裂
ｂｅｒｔｅ
不登校
ベ
液貯留
胃壁
状陰影
##ｔｅｒａ
納
食道カンジダ
転倒リスク高まる
眠り薬
間質性変化
精管
##レーション
インダシン
##手伝
##パッチ
ゴミ
水っぽい
自己流
不完全右脚ブロック
ユーゼル
ｌｉｔｙ
栄養状態悪化
キング
##情動
ダイエット
##コルチ
小さめ
##ｏｕｒ
ｅｙｅｓ
つかまり立ち
領
キャンサーボード
留まっ
Ｖｔ
鎮咳
崩す
##凄
自己消毒
ウィルス
市中肺炎
ウィーニング
腹痛時
ｐｅｒｓｏｎ
とん
##エラス
線量
肺化膿症
##合流
送り込み
ドキサゾシン
##手の
テル
左肩関節
##爪囲
ドキソルビシン
Ｂｏｘ
マックス
##前頭葉
皮脂欠乏性
起坐
嫌がり
##高次
陰嚢水腫
ｔｉｄｉｎｅ
外痔核
そい
右肺炎
##瘡
去痰
ＰＩＰＣ
ポステリザン
脳塞栓症
乳製品
打て
##Ｃｏｒｙｎｅ
##Ｍａｒｆａｎ
暴力行為
めれ
裸
ｅｎｅｔｒａｔｉｏｎ
つまみ
献血
破砕
角部
##ダイナ
##短期
##皮弁色
##ｐｒｏｇｒｅ
吐きけ
ＰＴＣＬ
ｅｆｆｅｃｔ
骨痛
両膝関節
カスト
ぱ
倦怠感等
たまたま
午後３時
##チカ
治癒傾向
腟断
袖
##異物
炊
##科的
肺障害
コンサータ
癒着し
切迫感
条
##意欲
##ｊｕｇｕ
三男
##プレゼ
おーい
##セロ
##かま
内包
かたい
##モニ
##ヒルドイド
模写
##垂れ
フィブリン
黄緑
##針
ｔｕａｔｉｏｎ
閉胸
##ＴＲ
ｂａｃｔｅｒｉａｌｔｒａｎｓｌｏｃａｔｉｏｎ
精神運動発達遅滞
##開眼
４０代
##ボール
留まる
##むか
左上葉肺癌
##急性期
ユニフィル
柔軟
散大
ＢＷｋｇ
##テルミ
腹部緊満
マクラ
ｌｅｆｆｕｓｉｏｎ
Ｎｅｉｓｓｅｒｉａ
Ｆｏｎｔａｎ
かわいい
再増大
ウロバッグ
後腹膜腫瘍
プラケニル
つる
リンパ漏
ｆｅｎｔａｎｙｌ
##腎瘻
関東
あそこ
鬱滞
ＡＯ
##鋸
##異常集積
ＰＶＬ
滑膜
痒感
硬化像
骨突出部
シリンジポンプ
北海道
代後半
##銀
切歯
ｃｏｒｏｎａｒｙＣＴ
##ｏｎｔｏ
強制
屋内
拘束性換気障害
四肢末端
コーラ
##頭蓋内圧
ト内
##ａｃｈ
間に合う
１０分間
##ユニ
動静脈瘻
ｓｉｃｋ
ｍＲＳ
１２０分
##左肩
Ｒｅｔ
絞り
大腸腺腫
破
##場
ｐｕｓ
##椎
トレキサート
##左室収縮
ｌｍｏｍｅｎｔａｌ
##ベート
腹部自発痛
アパート
ｎｏｓｅ
##ッシュ
万歩計
囲
##無気肺
##灌流
軽度集積
くらくら
##呑
ｒｉｓｐｅｒｉｄｏｎｅ
景色
貯留液
##コウ
夕刻
カス
##ｓｙｓ
##ｄｅｌａ
##トラキ
億劫
左大腿骨転子部骨折
##ＮＥ
##ｒｅｔ
##糸
厚生年金
三角部
大泉門平坦軟
後気分不快
ビーズ
掻破痕
関連性
クラリチン
援
##進行性
テオフィリン
ｄｏｒ
##葉状
多核
弱っ
灯
選
##ｉｍ
##ハラ
専念
上気道症状
##指尖
図形
##カナ
##ｉｎｅｄ
##ケタ
側副血行路
エリテマトーデス
ＩＮＦ
多血症
財布
精索
##ｃＴ１
##不均衡
物事
心原性脳梗塞
剪刀
ＭＣＩ
専業主婦
原発性肺腺
くん
##ｃｈａｎｇｅ
復学
吸え
##レスタ
シル
ｉｓｔ
口腔粘膜障害
##口腔衛生
##使用
##ハプト
ビオチン
バイク
吐
##ＰＯＤ
##隊
##伸筋
##遊離
##ｒｅｂｏ
褥瘡発生リスク高い
ナファモスタット
糸球体
ほてり感
##ｌｏｎｇ
Ｐｒｏｇｒａｍｓ
単心室
越
##ｇａｓｔｒｉ
冷やす
##ダラ
１５回
行き来
おばあちゃん
##珍
アロシトール
##アト
##ｗｉｄｅ
いわゆる
軽度呼吸苦
信頼関係
ベリー
労災
アミン
##遠慮
ｔｈｙｒｏｉｄｉｓｍ
##クリン
胞巣状
##やや
兪
##距
ＩＬＤ
ＩｔｏＬＣｘ
発赤疹
圏
を通じて
##高安
望め
所々
Ｅｏｓ
##オオ
##疎
##締め
##重複
成育
##ギプス
ぜひ
##挫
##たく
ＧＥＡ
我々
##ａｏｒ
##ヘキザ
##ＩＦ
寿命
##アチ
##自律
##ｐｒｅｃｕｒｓｏｒＡＬＬ
##ＯＰ
米粒
ＲＥＦ
##使
ゆう
##スマ
ｇｏｉｔｅｒ
Ｄ上炎症
##ｌｅｐ
ソール
ヘ
平行棒内歩行
プロッカ
などの症状
題
Ａｂ
１５
ｇｒｏｗｔｈ
聴き
生食負荷
##ｒｏｏ
##クエ
ｃｒｅ
医学部
さまざま
８６歳
##ストッ
左被殻
##発達
ケイキサレート
電解質補正
短め
##ッカー
二期再建
窒素
ぶた
８年前
求
レジェンド
Ｄｉｓｃｕｓｓｉｏｎ
しぐさ
ｄｏｒｓａｌｉｓｐｅｄｉｓ
##きょ
##陣痛
ィ
##費
骨化
骨幹部骨折
##エブ
妊反
ｄｅｍｉａ
うな
##感冒
腿
##再々
久々
張ら
ＣＩＤＰ
茶色便
##アブ
##置
##ａｂｄ
ニトラゼパム
ｓＣｒｅ
感作
##９０
肩痛
疑う症状
深部腱反射
エストラーナテープ
厚い
教師
創ｃｌｅａｒ
##信号
ぶっ
フランドル
##ｐｏｉ
##鞍
##平成１
##ひび
##うた
希望について
職場復帰
不眠傾向
##ｓｅｅ
オムニパーク
ＨＩＵ
ｃｈｅｍｉａ
ｅｒｔ
人様
##キザ
##かな
橈骨遠位端骨折
料理長
膵性糖尿病
血管拡張
##アクアチム
##帯状
気管内吸引
野菜ジュース
臀
監査
おととい
##角化
モノ
一括
すみやか
抗不整脈
##毒
##リバー
ｓｃ
休暇
リント
倒れる
かめ
一睡
##Ｌａｓ
##ｓｕｌ
炎再燃
発熱ない
ＳＶＲ
##心機能
できるかな
腎症１期
めざし
##エリ
##ｃｏｍｍ
津
左精巣
陰性確認
気腫性変化
##ｂｕｔｔｅｒｆｌｙ
殿筋
血液付着
##ウル
酷く
肩甲挙筋
##ルフィ
##府
服装
坐骨
唾
ＩＶＳｔｈ
測れ
結核既往
##気胸
##座り
##胃部不快感
##振戦
##ｉａ
胃腸症
摂り
コー
褥瘡形成
ーフ
##早朝
やん
客
腫瘍浸潤
ｃｉ
ＳＭ１
湿ら
##左乳房
##サルコ
陶芸
神経学的異常
骨減少症
徐脈性
ノバスタン
##浄
##傍大動脈
はいら
ｋｍ
タペンタ
ｐａｂｌｅ
ヒドロクロロチアジド
球症
##療養
ＩＭＴ
##スリガラス
##＋
口腔粘膜炎
お見舞い
##ｖｅｒａ
##ハル
線条体
##オメ
##Ｓｔｒｅｐｔｏｃｏｃｃｕ
##はず
##うる
文献
羊水混濁
##ｇｌｅ
##ｂｌｏｃｋ
ｌｏｏｋ
性痙攣
##マリ
##ＧＲ
##ｒｈ
ぶれ
大好き
６０回
用車
実父
ｏｒａｌｃａｖｉｔｙ
##ふる
##ブン
ノロール
##オピ
紅色丘疹
ｇａｌａｃｔｉａｅ
ｉｌｉｏ
りゃ
##ビオ
##Ｔｉ
１２本
斜角筋
##ｓｌｉｇｈｔｌｙ
刺さ
##ゃいけ
唸り
##ＮＯ
息苦しい感じ
悪阻
ＴＩＯ
##ベザ
##左下
慢
内耳
ーク
ｃｙｔｏｐｅｎｉａ
##ふく
##ｌｏｓ
##泳
##弛緩
##ｍａｓ
因性
上腕三頭筋
##効果
##おも
事態
##翼
##ｈｒｉ
##ソフキュ
半抜糸
##連合
上がれ
##坂
球結膜
取り直し
##ｉｚ
##副甲状腺
##Ｓｕｒ
体的
体力消耗
##汎下垂体
メプチン
温泉
痺れ感
軽度腹痛
ＰＲＥＳ
夜間排便
４０週
深達度
双方
##くわ
##階
##自覚症状
口唇ヘルペス
##永久
##料
還元
ｙｎｅｒｇｙ
割と
アタ
仲良く
不快症状
##足関節底
部潰瘍
亢進症
飲み込め
##クリーム
##塩分
##Ｎｓ
##ＨｅａｒｔＭａｔｅ
ａＰＴＴ
##負荷
##ｆｉｎｇｅｒ
無断
##レッグ
ｒｏｎ
##Ａｉｒ
混じ
グリチロン
##しぼ
耳栓
異常出血
薬剤なし
胎盤娩出
左椎骨動脈
##ｗｏｕｎｄ
##ヨウ化
あんなに
睡眠不足
##鎌
##脈絡
中検
デノタス
エビデンス
異常高値
張替え
気管支肺炎
ｄｅｐｒｅｓｓｉｏｎ
転落なし
２４週
##立ち上が
ＬＮｓ
##ＥＣＧ
フェンタ
##ワンタッチ
##漸
敷き
ｍＣｉ
転倒しない
##突き
##頻回
アルガトロバン
##Ｔｏｔａｌ
##Ｏｕｔ
##ｎｅｅｄ
母指頭大
文字盤
すすむ
放散痛
##左下顎
経膣分娩
不調時
##■■■■
ブス
##アミロイド
ＣＤ腸炎
気道感染
達する
黄色い
肺結
ポカリスエット
直接的
請求
膝窩静脈
##宇
ＡＢＬ
履物
含漱
乳頭腫
さらさら
##中毒
##Ａｚａｃｉ
柔らか
右内頚静脈
性雑音
支払い
ｌｏｓｓ
セレン
低血糖の症状
口腔ケア励行
##疑う
がし
正常下限
メロペネム
いらっしゃっ
自然気胸
Ｙｅｓ
ｖｉｋ
##ダーム
えて
##吹き
##スポ
Ｓｓｔａｂｌｅ
プロサイリン
左顔面神経
副腎転移
比べれ
##ｃｅｒｅ
認知障害
##ｔｃｈ
##塗り
イホマイド
##虐
独歩可能
##左尿管
Ｍｅｌ
フィリン
##宅
都内
幼児
踏まえる
##有り
ＭＲＩ
混合型
気腫なし
声帯可動性
膜下
脳膿瘍
クリーニング
##内耳
１冠
##肝臓
筋弛緩
##到
母乳綿棒
##篠
##エキ
ｐｒｏｍｐｔ
##Ｅｎｔｅｒｏｂａｃｔｅｒ
##ｓｏｆｔ
##インヘ
にわたって
##ｐａｃｉｎｇ
部感染
以
楽しめ
##腸雑音
##士
ＧＦＯ
ｄｅｎｏｃａｒｃｉｎｏｍａ
ｇｅｒ
ｚｏｌｅ
##ｐｉｇ
##児童
喜び
脊髄損傷
##ＥＰＯ
煮物
拡張相肥大型心筋症
ａｂｌｅ
##睫毛
##ｌｅｇ
ＦＡＢ
##湿潤
ロイコボリン
ＤｃＴ
硬膜管
逃避
優しい
鳴ら
レディース
ａｐｅｘ
会わ
くだ
夜間入眠様
作れ
ＳｔａｎｆｏｒｄＢ
大腸菌
Ｐｅｒｏ
ｍｏｄｅｒａｔｅＴＲ
リカバリー
ＷＨＯ
ポカリ
午後４時
ＭＨ
##ｃｏｍｐｌｅｔｅ
暗血
飾
拡張薬
##晩
再現性
昼ごはん
##頭蓋底
仰向け
指数
左肩痛
##ｕｎｄｉ
ラピッド
群発
##ｉｐ
抗ヒスタミン薬
壊
散瞳
##長期
##残渣
##胃底
副作用症状モニター
ｃａｌｃｉｎｏｓｉｓ
##ボト
老健
##咳き
寝具
中身
##サポー
右上葉肺癌
お待ち
##括約
経口摂取困難
ブル
お願
鮮
ＰＡＤ
知能
骨硬化
新出
切り上げ
##人格
先立ち
慢性肝炎
フォシーガ
##ヴェ
前脛骨筋
##ジャン
ふり
##タリ
ｆｏｌ
頓服薬
歯牙
喉頭侵入
左声帯麻痺
##ｒｅｔｒｏ
自営業
##ネフローゼ
##ａｄｏ
意識的
サンプリング
従っ
ｒｕｐｔｕｒｅ
左不全麻痺
ＧｎＰ
痛なし
ジル
##サーファク
##シグ
めん
##メプチン
器質性
ヶ
ｅｎｉｎｇ
##後頭葉
勤め
ａｒｔｈｒａｌｇｉａ
##油
##ｓｔｒｕ
Ｑｐ
けれども
食道胃接合部癌
##ａｓｔｏ
##ループス
夜間発熱
##ひき
右鼡径ヘルニア
##継
##転倒リスク
Ｇｒａｓｐ
軽度拡大
両下肢ＬＶＡ
体重変動
##鑑別
フレーバー
食後腹部症状
ｃｙｔｅｓ
プラズマ
##Ｆｏｌｌｉｃｕｌａｒ
まさ
ｆａｒｉｎ
##間歇
ｒａｅ
多摩
Ｐｓｅｕｄｏｍｏｎａｓ
骨盤単純
##ｈｅａｄ
原発性副甲状腺
##判断
##中等
面積
骨性
ｔｅｓ
上京
マルファン
まとめる
##大きく
##じわ
延髄
##ＣＫＤＧ３ｂ
##ｏｒｉｅｎ
##鉤
##ｒａｌｌ
急上昇
食後嘔気
過活動
挫
##ｔｏｖ
デキサメサゾン
１００回
侵入
部問題なし
Ｎｅｕｔｒｏｐｈｉｌｓ
なんだろう
ｔｏｍｙ
##ピュ
##縱
Ｃｒａｎｉａｌ
有明
##Ｓ状結腸癌
##ｓｈｏｃｋ
らくは
性陰影
##むせる
ツルゴール
先ほど
頸管拡張
寝付けない
接着
皮弁
##固有
##ｖａｌｖ
##伝音
ＡＳＲ
##ｉｄｎｅ
食後高血糖
大量出血
人たち
##ミオコール
##ベタ
脊髄小脳変性症
感強い
##日常
ステル
それとも
ａｌｌｅｒｇｙ
鈍く
流シ
##タンデ
##ムコ
##広汎
##クロマ
コットン
がみ
##ノカル
Ｔｍａｘ
精液
いで
１５年前
##後発
００円
ｄｅｐｉｇｍｅｎｔａｔｉｏｎ
##はり
##Ｂｅｄ
腟洗
##まさ
血液混入
##偽性
##退室
シンチグラム
##ダイヤ
膿汁
りなし
##皮弁色調
##Ｇｅｎｅ
おもっ
ジオトリフ
ｄｏｓｅｑ
疼痛時湿布
むかむかする
摂取腹部症状
ＱＦＴ
異常信号域
外腹斜筋
##ｃｕｒｒｅｎｔ
裂孔
ぎり
夜間眠剤
肺内転移
発来
基底細胞癌
転倒なし
予め
##益
半側空間無視
励まし
##ヂ
ってり
##肺動脈弁
##ＣＫＤＧ３
手圧迫
##考
側頭葉てんかん
##みつ
##ｅｘｔ
##タノール
骨盤リンパ節郭清
##ａｐｌａ
##芳
迷状態
臭なし
丼
嚥下性
##プラー
時振戦
胸腔内吻合
皮膚腫瘍
解離性
##ｔｙｐｉ
リウムシンチ
##申し訳
##豊
巧緻
筋疾患
ｅｒｙｔｈｅｍａ
合併症予防
アムビゾーム
危険物
Ｄｉｌａｔａｔｉｏｎ
鮮血便
##呼吸困難
ｍｙｏｍａ
##右下肺野
ハート
ゼーション
なくし
おもい
ＬＯ
##胡
##ｃｉｔａ
ｈｄａｙ
##情緒
##思春
症状特
中旬
##寒冷
ダンス
##蘇
茶碗蒸し
称賛
アバンド
好調
##独り
##搔
増やさ
Ｖ８
##肥大
ｆｏｒ
##ｒｏｎｉ
##ｊｏ
気配
じゃう
ずーっと
##号
４回目
ｓｔｏｍａｃｈ
っぱなし
##バス
膀胱炎症状
蛋白漏出性
##ピックアップ
##追加
ＣＶＡＤ
レスト
アダプト
肯定
テオ
##低髄
脳虚血
血液製剤
増悪因子
のび
足のむくみ
虫垂切除術
##Ｒｅｓｏｌｕｔｅ
##尺
エクササイズ
##アクリ
異常集積増加
##毛細
##ポン
##些
##ａｎｔｅｒｉｏｒ
##ｐｅｔｉ
気付き
ブロナック
トリ
低視力
##ｄｉｓｔａｌ
体力的
##ａｒｅ
##連続
ｐｌａｉｎＣＴ
にこやか
ＡａＤＯ
細胞リンパ腫
異常Ｑ波
ｐｒｏＧＲＰ
##ＩＩＩＩＩ
アデホス
##茎
過量内服
ｇｒｅｎ
引抜き
咽頭残留
##出来
周知
契約
##更年
月経困難
練習中
突っ張る
##Ｈｙｐｅｒ
摂食不良
##Ｊａｒ
##空腹時
##ｖａｒ
働きかけ
進んで
しんどく
極少量
##きゅ
武蔵野
##Ｓｅｒ
腎移植後
##動脈瘤
水泡
##アンビュー
##待ち
諸
##ｄａｐ
同大
##トラブル
##似
##肝性
##腎症３
下壁梗塞
##ＨＤ
##オレンジ
膨張
棘波
##堀
腹痛軽度
チェア
強まり
飲水測定
倉
唾液貯留
##ケナ
##同名
##駆け
##悪心
##ｄｅｖｉ
ＴＬ
ニコ
##ｆｕｓｅ
食パン
見守ら
下極
止血剤
運動麻痺
民間
##Ｈｉｇｈ
わせ
##重粒
ステリストリップ
##越谷
用具
口角炎
ｚｉｎｅ
##据
##Ｋｅｒｎｉ
レンズ
主座
##アルド
##ぶつ
性発達障害
ターミナル
保健所
ｔｅｌｌａｒ
極め
コント
アフィニトール
睡眠良好
##指摘
##胃の
ｍｕｔａｔｉｏｎ
##ｏｌｙ
他患
ＰＳＶ
アプネカット
ｃｋｅｒ
##血算
ｉｂｗ
ｄｅｌｔｏｉｄ
##痰少量
きら
##リーク
副甲状腺機能低下症
全身型
ＣＡＤ
巻
状影
最新
平衡
ｆｉｎｇｅｒｓ
メド
はいり
##セラピ
コロネル
Ｄｅｌｔｏｉｄ
グラマリール
デザイン
切りかえ
強い痛み
##タンパク
うすい
流行
##酵
ＧＢＭ
純
ＪＳ
ハンド
開閉
Ｍｅｄｉｃａｔｉｏｎ
##胸腔
##薦
痛等
ｐｏｌａｒ
##濃厚
専門家
ｍｉｄｅ
##尿カテ
ＰＦＴ
マルファ
##ムス
グリメサゾン
三角
ラタノプロスト
ＭＡＳ
##ＦＵ
##淡々
##装具
性腫瘍
重症度
組み
##ぴりぴ
ｏｎｅｆｏｏｔ
ｓｅｇ
ａｒｅａ
ドレニゾンテープ
##ｍｉａ
##ｃｏｒｏｎａｒｙ
掻痒感持続
持ち帰る
##鈴
２肺炎
##ｓｅｄ
##アシドーシス
響く
抗アレルギー
かわいそう
##ｕｍａ
動物
左卵巣嚢腫
耐性乳酸菌散
持越し
慢性的
昨年１２月
##みぞ
##まま
ｓｔａｔｉｎ
いり
描画
ｓｔａｇｅＩＩＩＢ
たいへん
坂道
骨癒合
バレー
##陰茎
恥ずかしい
##随伴
ｎｏｔｐａｌｐａｂｌｅ
##左肝
視認
##辿
##バッ
滑
##スライ
##ａｒｔ
##脱毛
管ク
熱く
聴
栄養状態不良
５０回
##ｎｅｅ
クラミジア
ゴミ箱
一生
他動的
顆粒球
ついて
黄染あり
グレープフルーツジュース
溶連菌
##ｓｈｉ
##ｎｅｘ
##ホーム
感染後
##崩
なんにも
たさ
##りん
##ような
ｓｔｌｉｎｅ
ムス
下肢浮腫軽度
##釈
安静時振戦
ｔａｇｅ
肺炎合併
##おい
うみ
##Ｅｒｙｔｈｒｏ
ねむれ
左乳癌術
##側副
##Ｌｅｖ
##ＸｉｅｎｃｅＸｐｅｄｉ
決
栄養状態低下
２５年
曲げる
間近
の中
##ｎｏｔｏ
ｌｉｔ
処方不要
下肢しびれ
ゆるい
##エデ
##ロフ
##板橋
##テリ
ｓＴ
機能性
称
鼻甲介
##ｒｅｇｕ
ｂａｃｋ
偽陽性
ｃｏｕｒｓｅ
右鼠径ヘルニア
ｖｉｔｙ
##ｔｈｒｉ
##ｈｅｌｌｏｎ
裏面
##杏林
Ｈｏｍｏｇｅｎ
ベニン
早期大腸癌
髄膜瘤
##Ｇｒ
組織片
が痛む
##落屑
##歩行車
併存
アドソルビン
恐怖症
性胃潰瘍
##縛
##ａｂｓｃｅ
エーション
アミノ
##区域
噛む
##スカル
レナシス
サルポグレラート
##ピオ
##ｓｈｏ
軽度熱感
おえ
当然
識別
温める
ｒＥＦ
硬便少量
強膜
##ｄｏｍｅｔｒｉｏｉ
フェログラデュメット
##挙
##カリウム
大臼歯
便汚染
##兄
##ａｆ
腕頭動脈
結膜充血
ちょこちょこ
##脳波
くすり
あつい
ぴくつき
ショートステイ
触り
##ａｐｐｅｔｉｔｅ
ｄｒａｔｉｏｎ
##膵尾
ｓｌｅｅｐ
##ケラチナミンコー
ｄｉａｄｏｃｈｏｋｉｎｅｓｉｓ
##クシ
３３３
椎骨動脈
##イマ
つかえ
##ｌａｂ
ワクリーム
ＴＧＡ
仮性嚢胞
っぱり
##聴取
##Ｇｙ
｝
##ちょっと
##前壁
窩腹膜
##ｒｈｙｔｈ
しに
##ｇａｎｇｒｅｎ
##ｓｃｌｅ
##神経症状
##ｃｒａ
##１７
ファーストシン
つきあり
##雑
フラビタン
##左肘
隠れ
施術
##アロキシ
##泡沫
##ソフト
Ｃｏｇｎｉｔｉｖｅｆｕｎｃｔｉｏｎ
##ｃｉｐｉ
多系統萎縮症
再開胸
##ＬＶＥ
##ｐｔｏ
言及
２型病変
ＶＣＤ
##脊柱管
急性胃腸炎
下痢持続
医療機器
ナベルビン
ｍａｒｃｅｓｃｅｎｓ
##瀬
グルコース
ＢＵＳ
結核菌
ｐｕｆｆｙｆｉｎｇｅｒ
ｇｌｉｏｍａ
##Ｖｉｔ
##込
ｌａｐ
異常波
ガウン
##残遺
色んな
##悔
Ｈｉｇｈ
ｖｉｐ
紅茶
認めれ
チョコ
頸髄
##左足趾
##摂
彼氏
##Ｐトイレ
急が
穿孔部
までも
菓子パン
研修
##まだ
出産後
##唾液様
サラゾピリン
##心尖部
１個
技
痩
##分化
##ｆｒｏ
咽頭反射
##血尿
ＴＸ
##ＦＭ
生育
テイゾー
スク
##ート
##ガストロ
悪夢
甘く
胎胞
##サイド
自助具
口唇裂
胃常
##ｄｉｖ
##Ｌｕ
ＳＰＤ
頭蓋内圧亢進症状
時の間
メジン
##喉頭蓋
ｌｅａｄ
##透過性低下
ｂｉｏｌｏｇｙ
##ｄｅｎｏ
ポエチン
##歪
##アキレス
胸背部痛
デーション
##飲食
７分
皮膚黄染
胃管留置
##心拍
人前
##楕
ブリン
急性大動脈解離
##ｖｏｌｕ
ｌｌｉ
##ｃａｔｈｅ
##ＰＴＸｉ
装具装着
##左鼡径
重量
##ｔａｃ
瓶哺乳
##とら
病状悪化
営業
ＳｔａｇｅＩＶＢ
医局
##ポビ
##後期
ＴｒｏｐＴ
##忍
フィジオ
ｅａｒｓ
プス
##星
飲みません
社員
##病棟
ｓｅｔｔｉｎｇ
真剣
刻み
原疾患不明
##腎臓
いち
重ねる
創部浸出液
##験
ＤＰＴ
脱水症
軟便傾向
##ｐａｔｅ
ベート
##スポー
儀
いけれ
ＡＢＧ
##暗赤色
##マクトン
傍大動脈領域
中足骨
ｌｉｇｎａｎｃｙ
##盤
##ｐｕｒｐｕ
クロマチン
リン血症
##Ｗｅｅｋ
気持ちよかっ
食べれ
盛り上がっ
##血管炎
アルコール離脱
##ｎｉｆｉｃａｎ
##乾癬
両眼瞼
##漏斗
胃静脈瘤
ｃｙ
低Ｃａ
銀行
##落と
ファロム
##見つ
##やむを得
はき
少な
##右肝
ＣＩＳ
##ＤＰ
##ｍｕｒｍｕｒ
##ヶ
##表皮剥離
ケモオリ
##ｎｕｃｈａｌ
部髄膜腫
##剥が
##機械
ストミー
合流
当識障害
##膀胱内
##ｃｏｎｄｕ
再発病変
##かけ
##けいれ
終われ
４階
協同
低体重
##ｔｈｌｉｎｅ
##ｔｅｉｎ
れて
##トイレット
喘息既往
自己申告
ｏｓａｒｃｏｍａ
##１回
空ける
ずり落ち
自己測定
前傾
##Ｔｅｉｃｈｈｏｌ
テネスムス
ハイボン
##光トポ
自閉
##ｃｏｍｐａｔｉ
##領域
##ｓｐｌ
##婦人
##イーケプラ
##ユニバー
ｂｉ
##知識
##ぬぐ
独
##食摂取
バリウム
##ｐａｐｉｌｌａｒｙ
ｐｅｔｅｃｈｉａｅ
ｒｄ
クレナフィン
メディセーフ
結果的
##タル
いじる
ソフティー
ソフラチュール
##パルト
##ｔｉｃｅ
働く
ぉ
鬱血性
ピュアレーン
##ニトロ
##ルギー
##Ｖｉｔａｌｓｉｇｎ
鼻部
ｓｔｒｉｄｏｒ
ズキズキ
##口腔底
名古屋
ＣＰＭ
ｃｏｒｅ
##１型
ナゼア
プタ
##乳児
自己血糖測定
##硝酸
イミグラン
Ｉｎｔｅｇｒｉｔｙ
Ｐｏｓｔｕｒｅ
直腸潰瘍
書き損じ
ケイ
ａｖｉｕｍ
世界
ｄｉｆｆｕｓｅｐｉｇｍｅｎｔａｔｉｏｎ
血行
歳男
##くも
保護室
運動失調
##ａｎｋｙ
##テント
##中枢神経
ＣＣＣ
##ｃｏｌｏｒ
##酸化炭
##塵
細小血管障害
Ｒｏｕｘ
##痔
性質
##本人
##顕微
##ｃｒａｎｉ
向かわ
##腺腫
##ｉｎｔ
##満足
頸部吻合
血管系
好む
ｗｅｉｇｈｔ
茶話会
##うずく
ｓｑｕａｔｔｉｎｇ
充血なし
つぶし
カリック
委
滅
##生食
##印
##椎間板
##ねむ
##牽
##朦
鼻炎
写
##経済
##充実
##こだ
##カンジダ
ＯＧＴＴ
##Ｃａｎｄｉｄａ
##ィ
##ビソ
見舞い
ｏｍａｉｒ
##ウエ
ーラー
希
##乾性
##貧
傾
イル
ジュール
##秘
弊
##則
装
##インター
##算
##了
##Ｗａｒ
乗
##絞扼
##律
のむくみ
##リドメ
##アニ
##尽
かしい
##寂
##ばら
##ぶどう
##食事
##浮遊物
##肺胞
灸
##替
##額
こし
##ＴＡ
折り
##搬
##服薬
臓癌
##醤
##ｃｌｏｓｅ
##ーシス
##塞
ビシン
クション
##吸気
益
｛
フィル
##ムン
上皮癌
##推
##ヵ
##Ｋｌｅｂｓｉｅｌ
##癇
##ｓｙｓｔｏｌｉｃ
##やっ
真
衰
痛症
札
らかっ
##直接
##総合
##とっ
ｂｉｌｉｔｙ
諾
ナロン
##ｓｅｕ
ＬＦ
ｍｍａｒｙ
バール
##Ｎｅｕｔ
##芍
##新出
副甲状腺
輩
４分
マルチチャート
##相談
##ｃｈａｎ
##白内障
##ランタ
被殻
##ソリ
##おか
ナミン
##出生
##缶
##バイタルサイン
##カラヤ
リール
スタット
##知り
##ｔｅｇ
##浜
##ミュ
しょう
##荷
##外耳
##ｏｒｍａ
ゼパム
##未熟
##ＲＡ
申
梅
##酷
##ａｍｏ
疼
ｄｉｒ
##後方
づい
##スコ
##増加
延
##チア
ソプト
##エポ
##制吐
##癬
##生理
##祥
##残存
##抹
##展
志
##尿毒
乱
##爽
##嗽
##足背Ａ
##パル
##Ｋｌｅｂｓｉ
製品
##ｔｈａ
かみ
##派
##ゾン
##リノ
##色素沈着
穏
##ｈｔ
溜
##宗
##柳
##アリ
癬
##ＴＩ
災
##褐
##グリコ
##華
凝
##安定
##とん
##処
##兎
##セッ
##拘
ッシュ
ａｃｔｉｏｎ
##伯
腸癌
##韓
預
受
##凍
##政
##ケトン
##錐体
##ｗｅｅ
##視野
##回転
ろし
##賛
欲
癪
##際
景
##ｃｒｙ
##半身
##地域
桃
##ｇｌｉ
##っち
臓
##十二指
キシ
ミー
##ノルバ
##自主
##罹
##酢
##佃
紅
瞳
##ｍｇｐｏ
研
##Ｂａｂｉｎｓｋｉ
##ょう
##園
##自己免疫
##Ｒｉｎ
##ヴォ
##送り
ａｙ
##オムツ
##プロッ
##浪
##スティ
##菜
##ｂｉｌｉ
##農
##汚染
ペネム
##記憶
##曖
##リエ
##痴
##幅
##自殺
##剃
##径
血管陰影
##ｓｐｌａ
##嵌
##怪
##ＲＯＭ
ｓｕｌｔ
##肌
##咽
##涼
ビア
##ｓｈｏｒｔ
##ｍＥ
##厚生
置
##貪
吸
##唐
##沿
ｏｐｓｏａｓ
##Ｓｐｉ
##病状
界
##真珠
##シタ
日排便
##ラピ
##ヘル
##妹
##Ｅｎｔｅｒｏｃｏｃｃｕｓ
##洋
##ｏｒａｌ
＼
##頂
##ジル
ｓｔｓ
ザルベ
っぱい
##ロペ
##眉
##ｃｕｌａ
顕性
##濃縮
ＧＲ
朧
##神経学的
##ｔｏｕ
##基準
##きり
##すりガラス
メンド
##ｓｔｏｍａ
##硝子
##ｔｏｎｇｕ
##リモ
##カク
遮
##Ｓｈ
##筆
##嚼
##ティー
##咀
返り
##郵
##ｉｌｉ
##朴
##ｌｅｘ
##篤
萎縮症
##亮
##やむ
##英
##デイ
##ルゴ
##ＴＭ
##ホスピ
##鋭
びに
##雪
神経炎
##掛け
該
##検査
##Ｓｔａｎｆｏｒ
##乳輪
##スロ
##溝
##獨
まめ
粋
もなく
肺静脈
##墨
ｍｏｒ
右脚ブロック
ミル
##炭
##コル
##センケ
幸
##うなず
##小さ
##＝＝
ＭＡＣ症
答
筋症
##齲
##リツ
##ｔｈｅｌｉ
##周術期
##椎弓
##ソラ
##ニューロ
##潰
##性器
録
##虎
##オキサ
フロ
##ｍｏｄｅ
確
##ｎｅｕｔ
##ｅｃｈ
##ｃｈｙ
##セントロ
##ｔｏｃｏ
ましく
刀
##髙
##嗄
##ナス
働
ｉｔｙ
##カロリー
##この
大傾向
##ｔｈｅｒａｐ
戻
マイド
##努力
吟
減弱
##エルゴ
##対光
##兆
##血糖
##真菌
##邦
##膵液
ｄｏｎｅ
ｃｕｌａｒ
##ｖｉｔａｌｓｉｇｎ
##シバ
##リザ
華
##没
ｓｅｎｓａｔｉｏｎ
##鉗
##躓
##ぐる
康
句
##ｕｇ
ジャー
##エント
セン
桜
##ｆｅｍｏ
##裸
##稽
##フット
﨑
##膝窩
##歩行器
亀
##ｎｏｒａ
##ｐｉｌ
##丹
##迷走
##緊急
ＩＳ
##煩
釘
ファリン
エント
ｎｅ
ｍａｎｎ
倒
墨
##誠
ワー
##前駆
##呈
##もっ
##ｐａｐｉｌｌａｒ
##やむを
イソソルビド
##レント
棘
##筑
ナーゼ
##鑑
ｃｏ
##ｌｏｒ
##ｘｙ
##塊
##切開
えば
##葬
##ｍａｒｇ
##迂
##Ｓｙ
##レスキ
##輸血
##写
##しば
修
##横紋筋融
##Ｂｅｎ
泣
##せん
疇
##ｔｉｄ
##敗
##物品
運
##典
塾
典型的
則
##叫
キシル
##オープ
##ｎｏｒｅ
##合わ
##ＰＭ
峰
ｓｔｈｅｓｉａ
##コントロ
##新生児仮
播
##促
養
##湿性
##ｉｇｈ
##範囲
##ｌｌａｒ
振
的刺激
##粗大
ａｐｉｎｅ
##ＩＶＳ
痒
##ｓｔａｇ
##頑
芋
ナック
築
揚
ｉｇｈ
##クリニ
##アンビ
見当
##瞭
##シム
トロ
##緻
##不足
##ｐｏｓｔｅｒｉ
##コーヒ
テント
返
##有意
##ｌｉｃｕｌａｒ
##撃
##ＯＲ
コーワ
##グルセル
結腸癌
##アタ
プリル
##迷走神経
##憂
##宛
ｏｓｅ
##子宮頚
##唱
帳
６分
##枯
序
凍
##レイノー
##ｉｎｏｓ
##者
##十字
ｄｏｍｅｎ
ｆｅｂｒｉｌｅ
##ａｎｋ
ＢＣＬ
しゃべり
##例
##鑷
ｐｓ
アスペルギルス症
寸
##Ｍｇ
##スキャ
##ドッ
##買い
這い
ｈｅａｄ
##血行
##ノイロ
##抽
下旬
ｈｅｅｚｅ
##伝導
##帯状疱疹
##Ｃａｎ
７週
##いただ
##腸腰
##ｇｅａｌ
##テオ
##締
穿
##菊
##ノボラピ
１２
##ディオ
##ベネ
##赴
##尿流出
季肋部痛
##丘
代謝異常
##甲状
ジール
##皆
##輸
##阪
##ｂｏｗｅｌ
##カニュー
拙
グラ
令
れなし
##カルバ
呆
##ウォ
##周期性
潟
##ｔａｎｅ
ｔｉｃｓ
##不整
##混合
##バルーン
にも
##軒
##Ｓｅｎ
##ロキソ
ｐａｍ
##稚
##疏
##川崎
##しょう
##衛
##アドヒ
##ゾル
##ペニ
##ｓｃｒｅ
##有形
クロビル
##ｃｅｎｔ
##Ｔｅｉ
機転
倒し
ｃｅｔａｘｅｌ
美
##攻撃
癇
##彎
頭筋
##ナリ
駄
##率
璧
##モダ
##跳
催
##ニゾ
##馴
##陥没
##グループ
##劣
オール
##スロー
##無呼吸
##拘束
嘆
##ＴＸ
##おし
##戴
##炒
泳
##リポ
##ｔｈｙ
労
##ネーム
スコ
##コレ
##先天
筋痛症
##喉
##イライ
いた
かに
##オキ
##Ｆｏｎ
##躊
##閃
##カルシ
８分
隠
##抗体
##ｆｌｅ
##局
##蹠
##高熱
躇
##ｒｉｎｇ
##フィラ
##牧
ｓｔａｔｕｓ
##稼
##ジゴ
ｔｒｏｐｈｙ
##ａｌａｐ
##炭酸
##きっ
快
##永寿
ｐｌａｔｉｎ
##撤
##ｈｉｇ
##叶
##めざ
##ころ
碗
ヌ
樹
##奈
##窄
臥位
##ｆｒｏｍ
ｃａｖｉｔｙ
##紫斑
ランス
##程
剣
##唾液腺
載
##エストラ
##潤
つま
##束
ａｎｄｉｎｇ
##参加
ぅ
眉
##蚊
アンス
##スプレ
##膝蓋
##林
##措
けて
膜下出血
##オパ
##ダグラス
太
##武
##崎
##靴
##しんど
##Ｃｈａｄｄｏ
##卒業
##ミダ
##シリ
##シェーグ
##胆道系
##叱
ＧＢＤ
##眠前
##倉
トリル
##滲
##ストレッ
##ｄｏｗ
##ｃａｒｏ
##Ｓ状
##竜
畳
##コール
濃度域
##末期
##異常Ｑ
難う
頭大
##アダ
綴
##ａｎｔｉ
閉
##肺癌
##歯周
キサン
##ｍａｒｋ
##後遺
##器質
##ｙｎａ
焦
##橈
ーバー
##ｓｐｏ
寮
江
餅
##臨床
##ｏｒｔ
##為
##アポ
##ピレ
##ボン
##敢
まく
ｓｋ
##り返
##曇
ｓｏｕｎｄ
##態
##フェノ
##絨
ａｒｙ
帽
##アルツハイマー
##Ｐｅｒ
##キド
##漕
##やわ
##賀
頭葉てんかん
##ｌｏａｄ
##漫
##隙
##ｓｙｓｔｏ
ベリン
##トイレ時
##アデ
甘
っかり
##唯
##抵抗
##コバ
剤希望
もも
##還
##揉
##っと
ーター
##ネクサ
##疲労感
##帳
##小細胞
##ディプリ
ンテープ
##ｃｏｎｔｒｏ
##Ｍｅｄｉ
クリン
##ミラ
##遺伝
##レバ
##安全
観的
##恒
##唸
提
燥感
暖
##ｐｈａｒｙｎ
##セーフ
##息ぎ
##ＥＣ
##不妊
##ネリ
漫
渡
不全症
##ｆａｃｉａｌ
##間違
ネックス
##ｎｙ
ａｒｔ
##頃
##コッ
トロール
絞扼感
##遮
##らか
伸
##キソ
##芸
##師
##コレステロール
##遥
##ｄｉｐ
ゾリン
##奬
##査
##慢
ヌス
##なお
まか
##きれ
##いらっしゃ
導管
ＦＢ
##膀
##高齢
##ＯＭ
##嗚
##届
##ｍｕｃｏ
##遷
##ＧＩ
##イコ
##析
さる
##骨粗鬆症
##痕
##伸ば
##覗
##Ｖａｓ
##ｓｅｕｄｏ
##網膜症
##叢
##興
##統
銀
##姑
##既
##ロイ
ｐｉ
##ベラ
##逍
稜
##雇
##拮
いに
##置き
性麻痺
##人工呼吸
##セイ
ｔａｎ
##ｄｒａ
##霞
##距離
##ＢＥ
##繰
##レル
鯖
##ルリ
##アルブミン
ｓｏｍｙ
盆
##野菜
##胸腔内
膵管拡張
ｂｌｅｍ
##徐脈
##下葉
ｐｒｅｓｓｉｏｎ
失調症
##顔色
##免疫抑制
懸
負
##肉眼
##メモ
##象
##舌根
握
##筋腫
ォ
##大球
白質
##桜
依
斗
##ＣＣ
##易出血
##トレッド
じめ
洋
##らく
##ｌａｎｄ
詞
アブル
##ブレー
##警察
##漬
排便障害
封
永
##ｃｈａｒ
##自覚
##狂
##ベース
##痩
##ネシ
##脳神経
##２００
##ｏｏｄ
##ふらつきなく
##コンフォ
##自己導
偽
ＣＡＧ
##白血
ＫＧ
##ェ
##にく
##腫大
ズム
痛くない
##沖
##ｐａｌａ
みあり
##レイ
##ａｄｊｕｖ
##トラマ
ビス
触知可能
##中心静脈
ビタン
酢
##肺音
ッカー
##ｆｉｎ
ました
##逝
軒
##ｏｂｅ
ｚｉｎｇ
##鼓室
ｂｏｄａｔａ
##ｒｕｐ
##いび
##Ｍｉｎｇａｚｚ
##育児
##しぶ
ＯＸ
担
互
##摩
##累
庫
##ＯＵ
##仁
酔
記銘
##ｉｎｇｅｒ
##ｓｔｒｅｐｔｏ
換
ｄｉｖｑ
我
粗
##胃液
##ニヨウ
##画像
##衆
##ミリオ
護
##検討
##樹
ステロン
##はさ
##ｌｔｏ
鑑
ｇｅｎ
古
##剖
##Ｇｎ
##沼
##訴
んと
##ＥＬ
##もち
##いじ
伏
##便潜血
抵抗性
叉
##ａｎｔｅｒｉ
フラ
団
砂
##乳糜
##点眼
##諾
慮
##ｆｉｅｌ
##ｒｏｎｉｃ
##ｔｒｕ
##ＲＨ
##カルベ
##頭頂
輿
##可動域
##Ｒａｄｉ
ｔａｘｅｌ
##ｏｒｄ
牛
故
俵
##競
##ッシ
ＣＴＤ
倣
含
途
タンポナーデ
位保持
##いま
トラム
##ｃｏｎｄｉ
膠
##貝
##プリン
沼
仙
##ボリ
##ａｄｅｎ
##デキサ
##ｓｍｏ
##フェント
顕
トラン
いは
##ｆｕｓｉｏｎ
##把握
雪
##耐糖能
##苦悶
##体外
##熊
##スイン
##ｐｈｉｌ
ｃｕｌａｔｉｏｎ
##まっ
##ハーフ
産婦
##ｔｅｎｄｅｒ
##疥
##釣
詰
督
##血漿
##樫
##ドウ
セリン
ｙｐａｓｓ
##おむ
チロン
##著
##キシロカイン
##阿
ｌｌ病
ジオ
##Ｃｏｒ
緩
アス
##回復
ｘｉｍａｂ
##セフェ
Ｍｇ血症
州
##ｐｉｌｌａｒ
ナリン
倫
##航
##頑張
##ありが
浸
チャー
##衡
##題
##アム
##フェンタ
殖
##チガ
##ｍｕｌｔｉ
##ケラチ
##双極
##情報
##帝京
##不均
##干
##突出
##六
##トラム
##びまん
ホン
##几
##グラム
##顎下
ｓａ
##アスペルギ
ヨ
##請
##ｈｏｌ
##ｙｐｅ
##ＰＶＣ
##リスト
##ｓｉｇｎ
ぼけ
##ａｐｅ
##オルメ
##惣
##イル
##ぴく
内歩行
##アズ
##ｇｈｔ
##痢
##蕎
##ペル
##這
##湘
##キセ
##ｂｒａｃｈｉ
ＫＩ
##依
モール
レル
願望
化症
##ケアマ
拇
##ウォー
旭
ｒｉｔｙ
##ｗｅｌ
##デル
##牙
ＺＤ
##パニック
##ｔｉｂｉ
##百
揮
ｐｅｚｉｕｓ
##脱力
祭
ショニング
ＰＡＰ
##婦
##ストラ
##致死
り症
##ーナ
〒
##破砕
営
ンド
##学的
##踊
##犬
##ホスレ
##掃
##チー
##護
了
##桂
##侵襲
遂
##祭
東区
椀
##武蔵
ｃａｌｉｓ
##センノ
ｐｉａ
##のみ
##界
##付き添
ｖｅｓ
##ホット
スリー
##奨
##爛
##係
##塩化
##マク
##昼夜逆転
年始
##ｈｙｐ
##働き
属
##トピ
崩
##廃用
##ＩＮＦ
##知的
##ｐｅｄｉ
##スタッ
ラル
##郭
ｖｉｒ
##緊
##敬
ベラ
プト
##下壁
たる
##サブ
縄
企図
##不明
##君
##ＢＤ
##アルツハイ
まして
改
##サーモ
##Ｃｈｉ
##豚
##みな
##ｂｌａｄ
氏
##エンド
##心筋逸脱
##ちく
##ＩｇＡ
アドレナリン
カルシウム血症
##ｍｕｒ
##代謝性
ｆｌｏｒａ
##Ｃ型
##槽
##炊
##病理
賜
族
##ｒｏｆ
嘔
##互
##絶対
##カウンセ
滞
##メディセーフ
ＹＥＬ
##闘
宜
##ＤＧ
竹
##ｃｏｍｐｏｎ
降
##クライ
##カンファレン
##ルギ
##浮遊
##捉
##酸素化
##見守
##Ｒｏｍｂｅｒｇ
痴
##ｅｒｇｉ
##ａｎｃ
##方向
##浣
##Ｎｕ
##リール
##ｃｏｎｓｏｌｉ
##アスペ
##大泉門
##蝸
##虫垂炎
##梁
##ガーグル
##一人
発達遅滞
##カヌ
##＋＋
##膀胱直腸
##妨
##多剤
隙
翼
##喚
##共同
##耳下
ピリド
承
ｅｎｔｓ
ことに
食摂取
伝導速度
笹
##デー
##ＦＯＬＦＩ
トロバン
##デザ
##ヴィ
##ｅｎｔｉ
##燥
如
##ｓｅｎｓｉ
駆
##ｍｍＨ
##シャワー
スケット
##捗
##繊
##なら
##幽
信号域
##妥
##遭
挿
##ほん
##全身状態
ステイ
ｒｅｓｓｉｏｎ
##ｓｕｒｇｉｃａｌ
媒
##やって
##譲
##ＫＡ
査
##発作性
ｙｐｅ
##軟膏
##躯
痣
血塊
##應
##循環動態
##蕁
##カニュ
派
##ｎｅｕｍｏｎｉ
験
沈
##髪
だよ
徴
##過活動
黙
鍋
京
##おっしゃ
##手技
##俯
##ガイド
##柏
##ケイ
##弛
三頭筋
##ａｃｅ
衡
##半月
##付属
##祈
##功
##疱
##博
##位置
##ティブ
##刻
ｔｉｃｓｈｏｃｋ
##ｔｕｒｇ
##将
ｔｕｒｅ
陵
権
無力症
##蕪
##頸部リンパ節
##鎖骨
##レッ
##半分
##ふら
##Ｈｅａｒｔ
絡み
##ピリピ
券
フラニール
苔
##脛
ッサ
遠位端骨折
ａｓｓ
ｓｔｙ
##ｃｏａｒ
##はい
##ラボ
##冷や
##ｔｅｕｓ
##灼
郭
##ｈｅｍａｔｏ
グリーン
##ロボ
##ｉｂ
##癲
##帽
##２０１
爆
##胸膜癒着
##さら
##ｊｕｖ
##失語
##ピコ
ＥＥＰ
##グリセ
豊
##リュー
##像
香
##ｂｉｌａｔｅ
##同室
ｖｅｍｅｎｔ
##アンテベー
##ウィン
##さっ
##保育
##精神病
##トランス
清
##女子
##接合
##卒
##テーション
##通過
##ヒック
貝
##行結腸
##セフカ
匙
##ナース
##打撲
メート
##済生
##疣
##墜
棋
##誇
議
##候
##景
##貌
不振
##フィード
##スペ
れ感
下肺野
ｎｏｕｔ
##デス
##肯
ｆａｃｔｏｒ
##ｃｕｒｒ
ｌａｎｃｅ
##系統
隊
##寡
##チーム
鞄
０日
##提
疎
##食物残渣
##ｐｉｔ
茸
##ストマ
##コンビ
##構造
幼
##ｎｏｍｕｒｍｕｒ
##ｓｗ
##ｐｒｏｘｉ
##暫
##披
##１２０
資源
しも
刃
##せっ
##脹
##徹
トニン
##ｗｈｉ
##歳
##たんぱ
さく
##駒
聾
##Ｃｌｅ
##ミルク
##脆弱
##凸
ｋｉｎｓｏｎｉｓｍ
##イヤ
##策
##フリー
##アクセ
##フルーツ
##捜
百
##診察
八
##もら
##剣
##ｄｉｓｅ
吉
珠
ｇｏ
隅
##Ｃｕｓｈ
##人間
大学医学部附属病院
##Ｄ上
脳室
##Ｃｌａ
##リウマチ
##ｌｏｇｉ
体動
##リット
##ｍｃ
ニル
##見当
##潔
##タケ
##知ら
##席
郷
##オム
##繕
##州
##ｂｉｌａｔｅｒａｌｌｙ
ｇｉｄｉｔｙ
##障
##スルファ
##安静度
##あた
##おと
上旬
##篩骨
##困難
雑音聴取せず
ｏｒａｄｉａｌ
##電子
##侵
##蔵
##病的
ライザー
徒
##エンシュ
ｐｕｔ
##翻
炭
削
##潮
ＰＴＨ
##ヨー
##ｔｅｍｐｏ
##テスト
キソ
##播
##不感蒸
期的
##アテレ
##更
膿症
##札
##病院
##ヒドロ
##肉眼的
##雑音
##貸し
##乳頭部
##宣
##有害
##にあた
##ｓｏｌ
ッキリ
##ｎｅｐｈ
##ＴＵ
婦
政
咽頭癌
即
##起居
ライド
##クラミ
##質問
##徒
株
##Ｄｏｕ
##懐
##ｄｉｓｔａ
##レジ
##異所
##中耳
ベロン
いいん
##跛
罨法
ジド
##ヘルペ
##駅
##チクチ
##リード
##肺内
##駿
眠傾向
##ゲー
噌
##速効
##訊
##鼠
##駐
ｄｙＣＡＧ
##鼾
福
##メリ
##グルコ
##儀
##ｆａｃ
出納
笠
##破水
ロシン
##頭重
##員
##ｏｂｓｅｒ
##おば
##脅
##ゥ
##アーガ
##粧
##攣
##ｔｉａｌ
##ｄｏｕ
衛
##検体
##ｄｅｆｅｎ
晶
##家族
##シクロ
##列
##奏
ゾ
##ｇｉｃａｌ
雀
##老年
##っしゃ
遇
リーフ
##エルゴメー
防
##ガバ
##プタ
渕
##蒼
##にお
##統合
##権
##ｃｉｎｏｍａ
##逆行
状血管腫
##練習
##襲
〃
##往
ＧＲＰ
##ＣＴＥ
秀
倚
##潟
世
##曝
##泄
##Ａｌｂ
抗体症候群
##バナ
##デパ
ｂｅｒｇ
##不正
##恥ず
匹
##ｓｔｈｅ
鮭
討
妙
##お母
##キャン
##カルデ
##デスモ
ｉｎａｌ
##浸透
采
繍
並
ＢＭＴｄａｙ
##及
##外泊中
##Ｓｔａｐｈｙｌｏ
簿
湾
ｎｏｄｅ
##ｌｉｇｈｔ
崩壊
銅
##宴
##哀
##Ｂａｂ
まれる
##ｄｙｓｅ
##ｃｏｒｏｎ
##菓子
演
##同意書取得
##リザー
##向か
##ぇ
##メガ
##けれ
ｌｉｓｔ
奴
##ジク
ｔｒａｔｉｏｎ
##ｉｎｓｋ
##飽
##昨
##ｔｏｆ
ケラン
ードル
##ｏｓｉｎ
##ｆａｓｃｉ
##ＰＩＶ
##ｄａｃ
##ｃｏｕｒ
##しっ
ランチル
ｎｙｌ
##すべ
##ヴ
##ｐｒｏｂｌｅｍ
括
##いわ
潮
##再現
##牡
##逸
##大胸
##かゆ
##樋
##ｉｎｓｕｌ
##ｅｒｙ
##Ｓｊ
##咽頭期
##枕
##内容
ロング
##Ｓｐｅｃｋ
##具
##ｉｎｄｕ
ｃｕｌａｒｓｏｕｎｄ
しまして
##往復
##ｐｕｒ
罰
踏み
ａＤＯ
港
##お世話
寒
##体力
##操
り返し
ａｃｈ
舎
##ＬＵ
朴
##ｆｏｒｍａ
剰
##ｆｏｏ
##レディ
##ｏｎｃｈ
##随意
##妄
##錐
##に際
抑
ｙｅｓ
##°
##ｂｉｏｐ
困
干し
プロフェン
##整形
##ウト
渋
##滲出液
##ｗａｔ
##活性
ルギン
##ネダ
##徴
##ＵＩ
##レベル
##丈
槌
##心房粗
##賞
##詳細
##沈着
賃
##ｄｙｎａｍｉｃ
##争
##惑
##肺小
ディン
##冊
##マルチ
##糞
##原発性
##煮
##ｏｎｏ
塞
##骨突出
##詫
##唾
##ドル
怖
##抗酸菌
ｃｒａｃｋｌｅｓ
##ショート
戒
##岸
##Ｃｕｌ
ｇｅｓｉａ
##ちょこ
ちら
##クッ
##兵
##尚
##ｈｅａｒ
ースト
##鳥
なた
垣
##ハイドロ
渇
##財
##トマ
峻
満
##篩
二頭筋
兼
ｓｅｍｉｄｅ
小体
##ｄｙｎａ
##過量
指定医
##ｐｎｅｕｍｏｎｉ
##維
##抗がん
め込み
##Ｄｒａ
##ァ
##眼球上
##カンジ
##文京
##アキ
##ムズム
##旺
##痰がら
##茯
##泌
##虹
込める
ディス
ａｎｃｙ
##曜
入らず
##舟
##てん
心機能
##晶
##Ｃｕ
##笹
##悪化
##ａｒｔｈ
##或
##歩く
シア
##膵性
ベア
くらみ
##ｓｌｅｅ
棺
##Ｎｅｕｔｒｏ
速効型
瘡
##デジ
##不振
キリ
狭
##奪
##ルネ
##捌
##抜き
##ピロリ
錐
ｃｋｉｎｇ
##頤
##案
##石灰
##榎
##泉
浄
濃
ｔｔｉｎｇ
##強直
ルモン
##Ｂａｓｅ
##Ｃｏｇ
##デパケン
暴
ダイン
##掲
##ＡＯ
ｆｏｏｔ
##冨
##燃
##むかむか
##記念
ーニング
心不全急性
##任
##中大脳
##デブリ
##報
##ブドウ
彎
##フォロー
逸
優
貼
##およ
##ｐｅｒａ
蔵
ｎａｓ
メリン
##対象
##ずり
ョ
##ｎｏｒｍａｌｖｅ
##ープ
##霊
##ｇａｎｇ
##ｆｏｒｅ
亢進症状
##植え
ｒｉｓｋｆａｃｔｏｒ
##抗リン脂質
##喃
##辺
##ｆｅｒｅｎｔｉ
##左横隔膜
##との
##有害事象
##苦しく
##ｗｒｉｓｔ
##ＵＲ
覆
ｃｒｙｌ
##漏出
大症
##ＭＡＣ
##易怒
既
仁
支援センター
##無気
欧
##Ｃｏａ
##籠
芯
##塚
##淋
##ゲンタ
##挾
敵
忘
##ｂｌｅｍ
##ニフェ
翻
宙
ｆｏｒｍａｔｉｏｎ
##善
##アイス
##鍛
##っちゃ
##アルブ
構
##泥
##ｐｕｐｉｌ
鉤
##啼
ット病
トレス
##Ｆｂ
##生体
ヂ
模
存症
##擦過
血流感染症
革
ｍｉｓｔｒｙ
##ピング
##犯
##奔
##ｐａｒｅ
王
サミン
##綻
軍
羊
停
感染状態
ｆｉｎｇｅｒ
##三角
##ｌａｎｇｉ
##占拠
##ｂａｃｔｅｒｉａｌ
##仙腸
アクト
##説明
攣
##砕石
##ＡＬＬ
##ｆａｎ
奏
腋
球性
概
##ＡＮ
##Ｌｙ
##銘
##頓
##棟
汰
童
若
##低酸素
##上葉
##庇
端骨折
##審
９週
##アカ
##血球貪
##撥
##クロル
##摺
##ｎｏｇ
郭清
##Ｐｓｅｕｄｏｍｏｎａｓ
##上昇
##デルマ
痂
##ｓｔｅｎｏ
ｓｅｃｔｉｏｎ
##ステロ
##沙
##レジェン
##ｖｅｒｔｉ
願
##上室
##コイル
ピュール
ｎｅｕｍｏｎｉａｅ
##リパ
##ｓｍｏｏｔｈ
##ｍｕｒｍｕ
##ニューモ
っち
ｒｉ
ピロン
ゆる
##縊
淵
填
編
##足背動脈
婿
##洞性
修復術
##湾
##自宅
##Ｆｏｌ
始
##簇
##尊
附属病院
ｓｔｕｒｅ
##ＥＣＭ
ｌａｓｔ
練
##ｍｍｅｔｒｉ
##控え
陥
##Ｔｒ
##エナ
##上層
型心筋症
干
たす
##歩容
##ｒｉｎｋ
##代償
##お子
くに
##スポン
##トウ
鎌
##トリア
##桐
ン病
##ｓｙｍｍｅｔｒｉ
##枚
##ｉｍｐ
##旦
薦
##タンポ
##アナフィラキシ
ドマン
##内障
##於
ｘｉｎ
##柱
##守
##エビ
##アイサイン
チー
ｅｎＦ
酸血症
##デスモプレ
づ
##胴
##さば
午
##腕頭
##塾
ｃｕｓｓｉｏｎ
クローヌス
遣
ｏｒｉｓ
復
励
##指導
##動静脈
蒸し
収
##シック
##誕
##剝
##遠隔
##棒
剝
蒲
##ビク
##殊
##嫌気
##喪
##跨
ネフリン
訂
##キュティ
##セルフ
##リウム
##暴力
んわり
##ｓｅｕｄｏｍｏ
ＩＤＰ
ゲ
Ｏｓｍ
##溺
##タール
##ＭＧ
ｖｉｕｍ
##垣
##洲
殆
ずか
煙
##掘
##昆
##ｔａｎｄ
リムス
チア
ウン
##シング
アルファ
下肺
撲
窄
##肝胆道系
##龍
ｇｒｅｎ症候群
菱
##刷
坊
##然
##父
避
##糖尿
##錐体外
シュレット
ｌｕ
##すす
##キング
##ｍｏｕｔ
##スピリー
##がん
##ｐｒｏｔｒｕ
イク
瘻化
プキン
##ｌｅａｓ
きまして
##貨
##溶血
房性
##アミノ
##ルタ
##威
ａｃｅ
どき
##与
ニズム
##シナ
静脈怒張
##眩
##符
##ペース
##ベッ
##硫
##手掌
##ＩＶＩ
##ズム
##ワッ
##酩
ｈｍａ
賛
性難聴
メイト
##茹
##インプラ
##コンド
獄
スタミン
##身体的
##カウ
塵
喚起
##過ご
##うず
##Ｓｔｒｅ
##啜
ｂａｃｔｅｒｉａｃｅａｅ
##なさ
##オリエン
ボーダー
##回盲
吊
##虎の
遷
##研
ルダ
##強調
##ネオステ
棄
霊
ｌｅｎ
##ＧＦＲ
##食道胃
##睫
苑
##ｔａｒｙ
##ｚｉ
ディル
##旅
##綿
ールド
##そこ
##右内頚
弯症
##ｏｒｗ
ＶＬ
##Ｐｒｏｂｌｅｍ
##ｃａｒｃｉｎ
##荏
##たび
試
##拠
##ｓｌｉｇｈｔ
##インフ
##教育
##ボラ
##ｍｅｎｉｎｇ
##僧
挺
##逐
##基本
##ｊａ
好発部位
##けい
##にたい
蹄
##上げ
ゴン
##Ｓｔｉ
器症状
##アプネ
##Ｖｏｌｕ
##携帯
神経科
兆
##璧
##〇
##討
##装
##ナッ
##拘束性
争
##掻破
ｈｅｒ
己
１１
##おぼ
##ジー
鉢
ｐｈｉｌｉａ
ｇａｔｉｏｎ
置胎盤
##デノ
##境
##典型
老
##ふり
コープ
スティック
##ｇｒｅｎ
##依存
##彩
##ｙｎｅ
双
舟
ｆｉｓｓｕｒｅ
##ｓｅｎｓ
##二期
##サーモコント
トランスファー
##庄
埋
##マグネシ
糞
にか
嶋
##褥瘡発生
ミナー
##不調
褪
##ｃｏａｒｓｅ
##受容
捉
##可及
##ｂｒａｌ
トリメトン
##ニコラン
##ひりひ
##ローゼ
庁
鬼
##慮
ソー
るく
##いまい
##ガスト
##ｎｏｆ
##軍
灰
裁
##ｓｕｐｒａ
##ｐｈｉｌｉ
荘
ナルコーシス
ベースン
##条
##ソフィ
ｇｉａ
##ピーク
##結果
##属
##却
##歓
払
##螢
噂
##ノバ
##ｃｒａｃｋ
##朗
之
像なし
##まと
##ｓｃｅ
ジュリン
##ふくら
##税
ゅ
及
##託
梁
焼
詩
##拝
##ｓｏｃｏｒｉ
##信頼
##誉
ダン
##きざ
恐
ｓｓｕｒｅ
##ｓｗｅ
##倦
##原病
##ロイコ
##ｂｕｔ
姑
##猪
##骨粗
##ピモ
須
##疑わ
##ｍｌｏ
トロピン
##ｎａｔｕ
##メピレックス
柿
##肛
##イントラ
##関節裂
づか
##穂
##ｔｅｍ
##フィット
ウス
##箱
##ｓｅｖｅ
##漢方
##グロブ
ｌｏｇｉｃａｌ
##郷
##アンチゲ
##鶴
##まい
##ｃｌａｖｉ
##輻
敷
依存症
##赤芽
##ロヒプ
##ｌｅｅ
##空間
ｍｅｎｔａｔｉｏｎ
##睡眠時
##骨密度
##デブリー
##メロ
##港
由
##ハイリスク
##倚
ｍａｌ
トリン
##水頭
膏
##いく
笛
##杏
##エレベ
ｂｏｐｌａｔｉｎ
##濫
##笠
ｍａｒｋａｂｌｅｃｈａｎｇｅ
誌
##季
##ｌｉｇｈｔｒｅ
##医学
##ｆｅｎ
##胃食道
##ＩｇＧ４関連
##レニ
絆
ーカー
##シス
##ｌｅｂ
作動薬
##Ｗｅｒ
##冗
##反復
惧
##マグラ
##滝
##テネスム
クル
##附属
襞
##ｌｉｇｈ
ビスカス
##顧
##鉄欠
せず
##反跳
託
##釉
洲
##肥
##株
##飢
##批
パチー
##どうし
パーク
##ひど
搬
パックス
ジピン
ナトリウム血症
##趣
##ｋｉｎｓｏｎ
##システ
鑷
##繰り返
##Ｈｏｍｏ
##誰
##アスペルギルス
##礼
##ルヒ
賞
キセート
##兼
##狭小
##ウー
##ラキソ
ダーム
##軌
##バッテ
##橘
低下症
稿
##酪
##Ｄｏｕｇｌａ
##ｍａｒｋａｂｌｅ
##クレアチ
##洗面
##刃
ニードル
##足立
##ｄｏｒ
昂
捗
##圧痕
##鋏
##アルファ
##＾
##蝕
##譫
##ＶＺ
##血糖降
##リスパダール
カルパス
ｓｏｄｅ
##吃
##ａｐｐｅｔｉ
##陸
##伴
##逸脱
府
皮症
##蛇
##ホク
##ｔｗ
##ｅｓｃａ
いろ
##栗
ｘｔ
システイン
##醒
##稠
##圭
糊
チゾラム
##ＰＬ
富
##起き上が
藻
##且
##雑音聴取
##Ｍｏ
ウンド
##目指
把
##ては
##リウマ
セプト
ｅｒｇｙ
##ＩＰＭ
浪
##ほて
##バルプロ
##訓
##刑
武
##ｄｏｍｅｔｒｉ
暑
ＰＴＴ
扇
##カイン
##ボルタ
##聞こ
コナゾール
椅
##ＦＬＡ
様呼吸
ミピド
##勃
##ＩｔｏＬ
##僕
##皺
##タクロ
植
##補聴
ドカプセル
##爬
##ロナ
##退院
##Ｏｒａｌ
鈎
##鍼
暈
ａｒｃｏｍａ
ｃｈａｒｇｅ
##エッ
##柑
##庫
ｇｕｌａｔｉｏｎ
##旧
##沸
##アレジ
##ポンタ
膚
刺激性
##カトレ
##柿
痢
##勉
険
##環軸椎
衝
##堂
ゼル
##リウ
##勇
##モニタ
##楊
##身体所見
湿
##レグ
泥
##すい
苺
##堅
##不随意
躯
##由
蠣
##フェナ
##陳
##袖
磨
拗
##ａａ
##孫
ｏｌｕｓ
激
##普
架
幌
##駄
##どこ
##顕
##綜
コーシス
##ＭＡ
雇
##鳩
##Ａｌｌ
奇
ファー
##ナゾ
ｕｔｏ
##ｐａｌａｔａｌ
ｅｎｓ
七
操
##栄養状態
##甥
##蹄
##バンコ
んなに
錘
裾
##栓
##那
##コミュニ
##倍
##跡
##ぜこ
##罵
##ハーモニ
ｉｎＣＴ
##パニ
ｏｌｉｎｇ
##省
律
洩
罪
##原性
##ゴミ
##ｒｅｓｔｕ
##ｐｅｒｆｉｃｉ
##臀
##偉
##令
##バセ
##Ｃｒａ
躍
##ｌｌｏｎ
##扇
##佼
##寸
セトロン
ズキ
苓
ても
##利尿
##減弱
くずれ
貫
##舌根沈
##熟睡
髄症
##希死
##灯
##荻
##ワンタ
爾
゙
##ｉｌｕ
##憤
##毟
閾
盪
##ニカル
##ａｌｃｏ
##人工肛門
##悪い
##ぉ
拭
##菅
##贅
##猶
##括
##ｍｏｕｔｈ
##ＴＧ
添
##陷
ｐｏｓｔｅｒｉｏｒ
##抗ヒスタミン
ｊｅｒｋ
##精神保健
ョウ
##橙
##ｄｎｉ
##血管外
##椆
募
##Ｓｕｐｅｒｆｉｃｉ
##ジスロ
##ｆｅｂｒｉ
##Ｋｌｅｂｓｉｅｌｌａｐ
評
憂
ナン
複
##大学医学部
##ｍｉｓｓｉｏｎ
モックス
きゃ
蜂巣
##筋性
##評
需要
ぐる
##北海
涯
##ぅ
偏視
##アライ
##辻
接合部癌
然と
９分
##坊
##ａｓｃｉ
##予定
惑
疲
ェ
##閲
##ＲＯＭｅ
脳機能障害
##呆
##ｉｎｇｕｉｎａｌ
ｈｏｌ
##机
##エックス
##リト
リンク
フレット
##斉
鈴
##畳
##タミ
芽
##叩打
##穹
##ｍＥＳＨ
##きち
##スム
##瀰
ｃｕｌｉ
##墓
##たこ
##ｆｅｅｄ
##ミコ
腹斜筋
デス
型肝炎
捏
範
##窪
##サンプ
##アカシ
いす
ゾーム
攻
咥
まえる
ｔｅｒｎ
##ｗｏ
窿
##Ｕｒ
##期間
従
##ズキ
##ワクチン
##ビデ
佐
襟
##猫
##餃
##カバ
##錦
##伎
##ｃｏｃ
##饅
彙
##メソ
##腹部膨隆
##覇
響
##おぼつか
##Ｒｅｓｏｌ
##宝
##メニエ
謝
##券
##棄
捻
##料理
##ｕｔｅ
##ｐａｃｅ
##巾
##橋本
##ダク
##勿
##ャ
葬
##穴
##カンファ
仰
##繁
##眠り
イント
標
謬
涎
##栄
ザール
劇
##桑
杉
##抵
##労作性
ロップ
##粥
##筋電
##杆
##褄
##苺
##ＴＵＲ
ダマイシン
頓用
期雑音
##作動
##センチ
##ＵＶ
トレキセート
##ォ
##姪
##プログラ
##再生
スルファート
##鵞
雄
##セプ
##ｄｉｐｌｏ
##玄
##あさ
鋏
縫
街
##ｔａｐｅｒ
##ーグ
##嗜
##汐
んな
##骨幹
##ｆａｃｉａｌａｐ
##プレイ
ジアップ
鈕
##深部静脈
ｐａｔｉｏｎ
##ＲＩＮ
##ござ
##笛
##渣
舞い
##烏
唱
##扁
##空腹
績
ヨウ
##ビスホス
##猜
##ｓｏｆｔａｎｄ
##ｓｔｅｒｏ
##宜
##魔
##饒
酌
##愛着
##抑肝
##セカン
辞
##ａｄｄｏ
##ｎｏｔｐａｌ
##縄
ｏｒｄｉｎａｔｉｏｎ
##ｏｘｙ
ップパッチ
##鵜
##深達
##拳
虎
##套
耐
##剰
ｌｏｒｉ
乏
##串
##ｔａｘ
##ルン
##ｈｙｐｅ
##ｓｍａｌｌａｍｏ
##たんぱく
##ｄｅｒｍｉ
##江戸
##ちょう
##コンパート
##ＡＺ
##ガンマ
##プス
##マイコ
##菲
##堪
##つかまり
##とき
ｍｅｎｔｉａ
ダロン
##皮脂
##Ｓｐｌｅｅｎ
##冷汗
##のう
##曽
##弧
パラ
ウム血症
##如
##玩
##ｄｉｆｉ
##ｚｚ
紋
##沁
##糜
蝶
償
##勧
##説
##メド
##本当
##ｐｅａ
##デュロ
##賃
烈
なくとも
推
賦
##最低
岐
##薬効
##高脂
##メジ
##紋
棲
没
##桿
##よい
##孕
ｆｉｅｌｄｓ
##雨
廃
##ｃｌｕｂ
ｔｒａｎｓｌｏｃａｔｉｏｎ
疾
徳
##ｄｙｓｐｌａ
ジス
##ｗｒｉ
##ブイ
##館
##■■
魔
しくは
##流動
セプター
##ｐｈａｒｙｎｇｅａｌ
##Ｓｔａｎ
ｏｓｉｎｏ
##市中
##ＡＧ
##引き継
##柄
##バスキャ
##ｆａｅ
擬
豚
傘
照
溶性
カルシトニン
捕
##過多
##写真
##Ｉｍｐ
##ＦＯＬ
ロム
建
ｌｏｒ
##経口
ｐｒｉｃｋ
##ソフラ
##ｅｒｎｉ
##件
##ネフ
鯉
ｉｎｉ
##半側
ドウ
##シャン
##ｓｏｓ
##姜
##氏
##賢
##ＱＴ
浴許可
フロキサシン
審
##逆血
拒
ペリドン
##褪
##云
##クサ
##吻合
##ロピ
##購
##呉
##モーラス
供
##フィブラ
##契
ミノ
##ミト
##ージ
##抗凝固
##ピトレ
##反回
##地域包括
##項部
##ｔｉｂｉａｌ
##ａｅｒｕｇｉｎｏｓ
##ＸＥＬ
輳
##副作用症状
##カム
蚊
##瞑
ｙｐｈｅｒ
サール
##いけ
##逓
##ネス
チール
##慰
##迎
##離乳
##逮
レア
##憑
##溶連
ｓａｔｕｒａｔｉｏｎ
##ｂｒｕ
ラクトン
##弊
##ホーマン
##頭頸部
ｉｓｍ
##Ｄｉｇｉ
##卓
フィー
溶
##袋
##Ｒｏｏ
遺
##パク
パク
抱
##瓜
恥
危
ドリン
##スライディ
##あまり
##こんに
楔
升
##Ｒｅｃｏｍｍｅｎ
##インダ
橈
ルミン
耗
##餅
##夜間トイレ
霧
##ｖｉｓｕ
ｐｅｎｉａ
タキセル
##サワ
販
となく
##諦
##肝硬
敏
んじゃない
##グルカ
岨
##悶
##ＦＯＬＦＯ
##ｅｎｄｅｒ
##仏
トレ
舗
##久し
暫
##撫
##茗
ぷ
##ナトリ
##吟
アランス
##ｆａｉｌｕ
##冒
##ロラ
脹
##茂
##ぐっ
著変なし
##ｌｔｉ
##アフ
むか
##労作
ネージャー
ｔｏｘｉｎ
##遡
##賭
##プラズ
##ｐｒｅｃｕｒ
##混ざ
シティ
過性
##これ
甘草湯
##利き
ビッド
レー
##況
##ソワソ
欠乏性
##萩
功
##フィル
恋
ディニン
興
##詐
内障
ｅｅｐ
##上部消化管
ノイド
##スクリ
擦
ペラン
余
##いし
ｍｉｔｉｅｓ
##比較
##お願
Ｓｙｓｔｅｍ
##窒
##自己調整
ぃ
ｌｏｃａｔｉｏｎ
##箇
##蒙
##Ｔｈａ
##ロゼ
##難治
##増強
暦
抵
邦
##幕
ケード
##リマ
##嬢
ｍｏｍｅｎｔａｌ
##哲
影なし
しば
リカ
##ムカム
##弟
##無力
ｔｏｃｏｌ
##超音
羹
##体圧
##モチ
孕
##領
##撒
##皇
ｄｉｔｙ
##ｅｒｕｇｉｎｏｓ
掻
##杯
鷹
##ｍｍｈ
緊
##峰
##ケイツ
##騙
##サイク
ッパ
##究
枢
シュガー
##ｒｉｓｐｅｒｉ
##トポ
##鎖骨上
##日常生活
##プロスト
ゼピン
##ロヒ
##瑞
ユ
シトール
摺
ｌｅｏｕｔ
あちゃん
##ペプタ
##リスパ
じく
##ｓｈａｒ
量多く
##フト
##携
##キャビ
##ゴル
釈
瓜
##ｄｏｒｓａｌ
##しび
##Ｅｔ
##安静
ｓｉｂｌｅ
##啓
##緘
誘
嵐
##ｈｙｔｈ
##オール
##脆
##愁
ｎｄｉｎｇ
##ウゼ
ングスケール
##酊
繰
##彫
ぎる
##クロロ
ボース
##プロスタン
##Ｒｏｕ
##ｌｉｖｅ
##少な
キソン
##錠
貸
##アサ
##餓
髙
##レスピ
##巨核
継ぎ
##現実
蓄
##恨
##カラヤヘ
##睡
買
喜
已
##イグザレ
##梶
##オムニ
##克
##Ｖｏｌ
##癒
##充血
虚
##答
位なし
庄
##上手
##エパ
どん
ニコチン
##キシロ
臣
##赤十字
##アニソコ
##瞼
##寿
##疝
##迅速
##醜
##ｏｒｍａｌ
み歩行
##やる
挙筋
##テプレ
##旭
##濵
##ｏｒｂ
ラート
蜜
ｆｕｓｉｏｎｒｅａｃｔｉｏｎ
##剛
免荷
##ｓｐｅｒｉ
歪
##綴
屁
##膵頭
ａｒｓ
##昔
悩
##ａｃａ
##Ｂｒｉｎｋｍａｎ
##騎
仏
##カプセル
##ポジティブ
あえず
ジェクト
##現状
##齟
齬
##夜勤
##ｒｈｅ
##掬
##トリクロ
ヂン
##ローリング
秤
##に従
##ジェン
統
ｖｅａｕ
##タンニン
##ｑｕａｄ
##デカ
羅
##拒絶
##蹲
墓
##族
##ｌｅｂｓｉ
##リファ
朮
##不明言
##懇
ｔｉｅｓ
芝
##壁運動
##綾
クトン
##惹
駐
ミクス
貌
##ぎり
##身の
酊
##セロクエ
##貢
##ｈａｍ
##ｍｅｎｔｉ
##コート
峡
襲
##轢
餓
ュアブル
##蒲
##茱
##狩
##嶺
##鈕
##鮫
叫
##畑
##桃
到
曝
貨
##珊
##振動
##渇
##枠
クロックス
ＰＲＯ
##ｆｕｒｏ
##ステロン
##媒
##踝
##賄
##ｉｓｓ
姫
##壮
##植皮
##磯
##クリプ
##皿
##水晶
##になり
喀
##エラ
##てんとう
##攻
だか
##アメ
ｏｌｔｅｒ
##蜂
##羨
##ひとり
##澄
幾
狂
ｐａｉｒ
##ｖｉｂ
##寧
栗
##メニ
##怯
##櫻
##すみ
ピボキシル
巨
郡
##抗菌
運動なし
渣
##眺
ニス
ウト
##幣
##一つ
ｍｅｎｔａｌ
##ｍａｌｔｏ
酷
れている
撮
##アムロ
##惜
##嫉
##ｆｅｂｒｉｌｅ
##ｋｃａ
筈
##Ｆｏｌｌｏｗ
ナフィン
##ｐｅａｒａｎ
ｔｒｅｍｉｔｉｅｓ
##材
##ｐｌｉ
##Ａｒａ
父さん
党
##俳
##漿液
化膿症
##ジュー
姓
六
##アスパラ
##イミ
##潅
ニブ
##菲薄
孤
##ゴロ
##瑚
##陶
##眠剤
動的
##トラベ
キサ
汚
##囚
オル
##Ｃｒａｎｉａｌ
##Ｓｐｅ
##犠
褥
##腋
カロン
##恩
##版
##戒
##剪
##Ａｄｍｉｓｓｉｏｎｏｎ
資
##マニュ
鋼
##鉱
##帰宅
##ｆａｃｉ
蔽
ｌｏｒａ
##シプロ
鞘腫
##Ｖｔ
##項
##ｍａｘｉ
##阜
##漂
##カウン
滲
酎
仕
##筒
##ＬＹ
##洩
##扶
##哺
##ポカリス
マリー
時血糖
牲
##シルバ
##曾
##チアノ
掛
娩
規
埃
顫
##睨
鐘
ｔｉｖｅｆｕｎｃｔｉｏｎ
##壊疽
##ネブ
タービュヘイラー
膜性
の間
##フェブリ
##幌
##パソ
典
##ポータブル
扁平上皮
##ホー
綜
##＞
##匿
##研修
ｐｉｇｍｅｎｔａｔｉｏｎ
##癆
##ぴり
##ａｎｔｉｇｅｎｅ
グレル
鬆
##ｔｈｙｒｏｉ
篤
##渉
朶
すが
##パート
##敵
##ピンク
ムチ
##アトピー
柔
ｂｉｃａｎｓ
##クール
##好発
